{
 "<pad>": 0,
 "<bos>": 1,
 "<unk>": 3,
 "<eos>": 2,
 "a": 4,
 ".": 5,
 "in": 6,
 "the": 7,
 "on": 8,
 "man": 9,
 "is": 10,
 "and": 11,
 "of": 12,
 "with": 13,
 "woman": 14,
 ",": 15,
 "two": 16,
 "are": 17,
 "to": 18,
 "people": 19,
 "at": 20,
 "an": 21,
 "wearing": 22,
 "young": 23,
 "white": 24,
 "shirt": 25,
 "black": 26,
 "his": 27,
 "while": 28,
 "blue": 29,
 "men": 30,
 "sitting": 31,
 "girl": 32,
 "red": 33,
 "boy": 34,
 "dog": 35,
 "standing": 36,
 "playing": 37,
 "group": 38,
 "street": 39,
 "down": 40,
 "walking": 41,
 "front": 42,
 "her": 43,
 "holding": 44,
 "one": 45,
 "water": 46,
 "three": 47,
 "by": 48,
 "women": 49,
 "green": 50,
 "up": 51,
 "little": 52,
 "for": 53,
 "child": 54,
 "looking": 55,
 "outside": 56,
 "as": 57,
 "large": 58,
 "through": 59,
 "yellow": 60,
 "children": 61,
 "brown": 62,
 "person": 63,
 "from": 64,
 "ball": 65,
 "their": 66,
 "hat": 67,
 "into": 68,
 "small": 69,
 "next": 70,
 "other": 71,
 "dressed": 72,
 "some": 73,
 "out": 74,
 "over": 75,
 "building": 76,
 "riding": 77,
 "running": 78,
 "near": 79,
 "jacket": 80,
 "around": 81,
 "another": 82,
 "field": 83,
 "sidewalk": 84,
 "orange": 85,
 "crowd": 86,
 "beach": 87,
 "stands": 88,
 "pink": 89,
 "sits": 90,
 "jumping": 91,
 "behind": 92,
 "table": 93,
 "grass": 94,
 "background": 95,
 "snow": 96,
 "stand": 97,
 "bike": 98,
 "city": 99,
 "&apos;s": 100,
 "girls": 101,
 "air": 102,
 "player": 103,
 "asian": 104,
 "looks": 105,
 "wall": 106,
 "top": 107,
 "dogs": 108,
 "that": 109,
 "several": 110,
 "older": 111,
 "four": 112,
 "off": 113,
 "dress": 114,
 "park": 115,
 "camera": 116,
 "talking": 117,
 "something": 118,
 "lady": 119,
 "soccer": 120,
 "along": 121,
 "walks": 122,
 "guitar": 123,
 "boys": 124,
 "hair": 125,
 "play": 126,
 "together": 127,
 "working": 128,
 "food": 129,
 "smiling": 130,
 "gray": 131,
 "game": 132,
 "picture": 133,
 "has": 134,
 "plays": 135,
 "car": 136,
 "hand": 137,
 "holds": 138,
 "it": 139,
 "road": 140,
 "him": 141,
 "bench": 142,
 "pants": 143,
 "glasses": 144,
 "shorts": 145,
 "old": 146,
 "walk": 147,
 "stage": 148,
 "sit": 149,
 "carrying": 150,
 "baby": 151,
 "couple": 152,
 "them": 153,
 "side": 154,
 "bicycle": 155,
 "face": 156,
 "&quot;": 157,
 "pool": 158,
 "tree": 159,
 "male": 160,
 "taking": 161,
 "race": 162,
 "rock": 163,
 "each": 164,
 "doing": 165,
 "watching": 166,
 "head": 167,
 "across": 168,
 "guy": 169,
 "jeans": 170,
 "dirt": 171,
 "there": 172,
 "area": 173,
 "blond": 174,
 "jumps": 175,
 "boat": 176,
 "hands": 177,
 "day": 178,
 "ground": 179,
 "female": 180,
 "room": 181,
 "back": 182,
 "performing": 183,
 "baseball": 184,
 "who": 185,
 "eating": 186,
 "being": 187,
 "using": 188,
 "football": 189,
 "coat": 190,
 "striped": 191,
 "suit": 192,
 "kids": 193,
 "watch": 194,
 "band": 195,
 "under": 196,
 "many": 197,
 "he": 198,
 "horse": 199,
 "purple": 200,
 "mouth": 201,
 "sign": 202,
 "store": 203,
 "long": 204,
 "this": 205,
 "sand": 206,
 "runs": 207,
 "tennis": 208,
 "players": 209,
 "look": 210,
 "construction": 211,
 "sunglasses": 212,
 "reading": 213,
 "its": 214,
 "clothing": 215,
 "microphone": 216,
 "mountain": 217,
 "basketball": 218,
 "ocean": 219,
 "dark": 220,
 "toy": 221,
 "during": 222,
 "workers": 223,
 "middle": 224,
 "watches": 225,
 "climbing": 226,
 "t-shirt": 227,
 "uniform": 228,
 "past": 229,
 "elderly": 230,
 "restaurant": 231,
 "helmet": 232,
 "against": 233,
 "team": 234,
 "train": 235,
 "window": 236,
 "work": 237,
 "dancing": 238,
 "rides": 239,
 "be": 240,
 "about": 241,
 "chair": 242,
 "they": 243,
 "covered": 244,
 "posing": 245,
 "or": 246,
 "trees": 247,
 "outdoor": 248,
 "having": 249,
 "wooden": 250,
 "five": 251,
 "waiting": 252,
 "swimming": 253,
 "getting": 254,
 "all": 255,
 "floor": 256,
 "trying": 257,
 "very": 258,
 "colorful": 259,
 "skateboard": 260,
 "ice": 261,
 "bag": 262,
 "busy": 263,
 "singing": 264,
 "fence": 265,
 "shirts": 266,
 "jump": 267,
 "line": 268,
 "hill": 269,
 "laying": 270,
 "market": 271,
 "cart": 272,
 "book": 273,
 "truck": 274,
 "tan": 275,
 "bright": 276,
 "inside": 277,
 "ride": 278,
 "hats": 279,
 "cap": 280,
 "kitchen": 281,
 "others": 282,
 "cellphone": 283,
 "grassy": 284,
 "path": 285,
 "high": 286,
 "big": 287,
 "someone": 288,
 "making": 289,
 "bus": 290,
 "clothes": 291,
 "takes": 292,
 "motorcycle": 293,
 "umbrella": 294,
 "body": 295,
 "full": 296,
 "night": 297,
 "towards": 298,
 "outfit": 299,
 "light": 300,
 "track": 301,
 "brick": 302,
 "enjoying": 303,
 "metal": 304,
 "river": 305,
 "swing": 306,
 "paper": 307,
 "ready": 308,
 "she": 309,
 "tank": 310,
 "shop": 311,
 "piece": 312,
 "sweater": 313,
 "open": 314,
 "trick": 315,
 "worker": 316,
 "above": 317,
 "colored": 318,
 "painting": 319,
 "lake": 320,
 "adults": 321,
 "going": 322,
 "music": 323,
 "board": 324,
 "dance": 325,
 "run": 326,
 "hard": 327,
 "snowy": 328,
 "surrounded": 329,
 "wave": 330,
 "shopping": 331,
 "vest": 332,
 "stick": 333,
 "onto": 334,
 "stone": 335,
 "uniforms": 336,
 "outdoors": 337,
 "crowded": 338,
 "photo": 339,
 "phone": 340,
 "smiles": 341,
 "beside": 342,
 "backpack": 343,
 "kid": 344,
 "pole": 345,
 "hockey": 346,
 "subway": 347,
 "house": 348,
 "gear": 349,
 "drinking": 350,
 "african": 351,
 "family": 352,
 "american": 353,
 "set": 354,
 "toddler": 355,
 "event": 356,
 "gathered": 357,
 "arms": 358,
 "guys": 359,
 "police": 360,
 "flowers": 361,
 "hanging": 362,
 "catch": 363,
 "bridge": 364,
 "away": 365,
 "beautiful": 366,
 "preparing": 367,
 "fire": 368,
 "steps": 369,
 "sleeping": 370,
 "leaning": 371,
 "costume": 372,
 "object": 373,
 "lot": 374,
 "after": 375,
 "fishing": 376,
 "machine": 377,
 "rope": 378,
 "plaid": 379,
 "bar": 380,
 "fountain": 381,
 "like": 382,
 "shirtless": 383,
 "take": 384,
 "adult": 385,
 "stairs": 386,
 "shoes": 387,
 "rocks": 388,
 "arm": 389,
 "sunny": 390,
 "graffiti": 391,
 "selling": 392,
 "does": 393,
 "racing": 394,
 "forest": 395,
 "pose": 396,
 "parade": 397,
 "chairs": 398,
 "setting": 399,
 "glass": 400,
 "tall": 401,
 "corner": 402,
 "putting": 403,
 "volleyball": 404,
 "both": 405,
 "frisbee": 406,
 "2": 407,
 "throwing": 408,
 "pushing": 409,
 "ladies": 410,
 "have": 411,
 "slide": 412,
 "between": 413,
 "drink": 414,
 "wood": 415,
 "laughing": 416,
 "short": 417,
 "public": 418,
 "computer": 419,
 "equipment": 420,
 "flag": 421,
 "instruments": 422,
 "pictures": 423,
 "couch": 424,
 "party": 425,
 "plastic": 426,
 "view": 427,
 "ramp": 428,
 "cowboy": 429,
 "sweatshirt": 430,
 "woods": 431,
 "trail": 432,
 "fish": 433,
 "playground": 434,
 "which": 435,
 "poses": 436,
 "yard": 437,
 "beard": 438,
 "statue": 439,
 "sun": 440,
 "concrete": 441,
 "winter": 442,
 "midair": 443,
 "dock": 444,
 "bikes": 445,
 "number": 446,
 "skirt": 447,
 "seated": 448,
 "reads": 449,
 "get": 450,
 "attire": 451,
 "what": 452,
 "just": 453,
 "toward": 454,
 "distance": 455,
 "beer": 456,
 "works": 457,
 "six": 458,
 "cooking": 459,
 "blond-hair": 460,
 "vests": 461,
 "cutting": 462,
 "rider": 463,
 "bags": 464,
 "bed": 465,
 "where": 466,
 "school": 467,
 "left": 468,
 "buildings": 469,
 "pulling": 470,
 "filled": 471,
 "cream": 472,
 "middle-aged": 473,
 "station": 474,
 "cross": 475,
 "sky": 476,
 "crossing": 477,
 "skateboarder": 478,
 "appears": 479,
 "cliff": 480,
 "friends": 481,
 "few": 482,
 "spectators": 483,
 "mountains": 484,
 "instrument": 485,
 "showing": 486,
 "edge": 487,
 "tent": 488,
 "show": 489,
 "mother": 490,
 "bearded": 491,
 "lined": 492,
 "jersey": 493,
 "art": 494,
 "cars": 495,
 "horses": 496,
 "performs": 497,
 "right": 498,
 "nearby": 499,
 "make": 500,
 "court": 501,
 "scarf": 502,
 "snowboarder": 503,
 "grill": 504,
 "apron": 505,
 "carries": 506,
 "bowling": 507,
 "driving": 508,
 "concert": 509,
 "perform": 510,
 "fruit": 511,
 "shore": 512,
 "leaves": 513,
 "time": 514,
 "boots": 515,
 "painted": 516,
 "parked": 517,
 "coffee": 518,
 "various": 519,
 "cigarette": 520,
 "students": 521,
 "vendor": 522,
 "structure": 523,
 "gentleman": 524,
 "goggles": 525,
 "smile": 526,
 "vehicle": 527,
 "net": 528,
 "younger": 529,
 "cup": 530,
 "drums": 531,
 "smoking": 532,
 "talks": 533,
 "door": 534,
 "box": 535,
 "flower": 536,
 "bottle": 537,
 "lying": 538,
 "martial": 539,
 "dresses": 540,
 "flying": 541,
 "home": 542,
 "bathing": 543,
 "hit": 544,
 "flags": 545,
 "surfer": 546,
 "kicking": 547,
 "shot": 548,
 "no": 549,
 "eyes": 550,
 "new": 551,
 "rodeo": 552,
 "prepares": 553,
 "rocky": 554,
 "rain": 555,
 "swinging": 556,
 "waves": 557,
 "paint": 558,
 "newspaper": 559,
 "safety": 560,
 "jackets": 561,
 "arts": 562,
 "indian": 563,
 "parking": 564,
 "bucket": 565,
 "gloves": 566,
 "different": 567,
 "gather": 568,
 "conversation": 569,
 "costumes": 570,
 "practicing": 571,
 "competition": 572,
 "roof": 573,
 "cleaning": 574,
 "uses": 575,
 "scene": 576,
 "bunch": 577,
 "ladder": 578,
 "listening": 579,
 "wet": 580,
 "items": 581,
 "skateboarding": 582,
 "onlookers": 583,
 "staring": 584,
 "blanket": 585,
 "audience": 586,
 "bull": 587,
 "bicycles": 588,
 "giving": 589,
 "empty": 590,
 "balloon": 591,
 "bikini": 592,
 "pile": 593,
 "desk": 594,
 "railing": 595,
 "lawn": 596,
 "meal": 597,
 "drinks": 598,
 "leaps": 599,
 "hot": 600,
 "suits": 601,
 "military": 602,
 "cake": 603,
 "sliding": 604,
 "bird": 605,
 "vegetables": 606,
 "display": 607,
 "gathering": 608,
 "sports": 609,
 "hold": 610,
 "pointing": 611,
 "stop": 612,
 "feet": 613,
 "gets": 614,
 "streets": 615,
 "facing": 616,
 "competing": 617,
 "wedding": 618,
 "biker": 619,
 "before": 620,
 "bowl": 621,
 "platform": 622,
 "huge": 623,
 "basket": 624,
 "speaking": 625,
 "mask": 626,
 "can": 627,
 "3": 628,
 "helmets": 629,
 "cement": 630,
 "surfing": 631,
 "classroom": 632,
 "class": 633,
 "teams": 634,
 "-@@": 635,
 "bride": 636,
 "tries": 637,
 "coming": 638,
 "match": 639,
 "silver": 640,
 "son": 641,
 "wait": 642,
 "sings": 643,
 "ski": 644,
 "purse": 645,
 "e@@": 646,
 "alley": 647,
 "climbs": 648,
 "traditional": 649,
 "surfboard": 650,
 "skier": 651,
 "marathon": 652,
 "rail": 653,
 "fighting": 654,
 "musicians": 655,
 "animal": 656,
 "tie": 657,
 "counter": 658,
 "kissing": 659,
 "way": 660,
 "chasing": 661,
 "gold": 662,
 "same": 663,
 "females": 664,
 "pass": 665,
 "break": 666,
 "father": 667,
 "stroller": 668,
 "go": 669,
 "throw": 670,
 "shoulder": 671,
 "kneeling": 672,
 "sunset": 673,
 "walkway": 674,
 "waits": 675,
 "screen": 676,
 "lit": 677,
 "runner": 678,
 "happy": 679,
 "country": 680,
 "lap": 681,
 "writing": 682,
 "business": 683,
 "violin": 684,
 "waving": 685,
 "re@@": 686,
 "lights": 687,
 "talk": 688,
 "christmas": 689,
 "blowing": 690,
 "seen": 691,
 "sort": 692,
 "attempting": 693,
 "bald": 694,
 "overlooking": 695,
 "signs": 696,
 "tables": 697,
 "course": 698,
 "outfits": 699,
 "place": 700,
 "scooter": 701,
 "mirror": 702,
 "hole": 703,
 "bubbles": 704,
 "says": 705,
 "blond-haired": 706,
 "urban": 707,
 "officer": 708,
 "artist": 709,
 "base": 710,
 "life": 711,
 "skating": 712,
 "close": 713,
 "leans": 714,
 "end": 715,
 "es": 716,
 "giant": 717,
 "balloons": 718,
 "s": 719,
 "fixing": 720,
 "chinese": 721,
 "umbrellas": 722,
 "brunette": 723,
 "swim": 724,
 "site": 725,
 "leg": 726,
 "made": 727,
 "plate": 728,
 "alone": 729,
 "foreground": 730,
 "cafe": 731,
 "teenage": 732,
 "leather": 733,
 "helping": 734,
 "gym": 735,
 "faces": 736,
 "skate": 737,
 "do": 738,
 "collar": 739,
 "asleep": 740,
 "dancers": 741,
 "electric": 742,
 "enjoy": 743,
 "legs": 744,
 "mud": 745,
 "brightly": 746,
 "clown": 747,
 "headphones": 748,
 "meat": 749,
 "sticks": 750,
 "washing": 751,
 "officers": 752,
 "office": 753,
 "stadium": 754,
 "diving": 755,
 "passing": 756,
 "wears": 757,
 "sandals": 758,
 "makes": 759,
 "among": 760,
 "swings": 761,
 "falling": 762,
 "doorway": 763,
 "skiing": 764,
 ";": 765,
 "s@@": 766,
 "photographer": 767,
 "toys": 768,
 "dirty": 769,
 "dark-haired": 770,
 "barefoot": 771,
 "church": 772,
 "multicolored": 773,
 "goal": 774,
 "musical": 775,
 "heads": 776,
 "leash": 777,
 "singer": 778,
 "video": 779,
 "accordion": 780,
 "row": 781,
 "drawing": 782,
 "throws": 783,
 "golf": 784,
 "laptop": 785,
 "picking": 786,
 "traffic": 787,
 "canoe": 788,
 "males": 789,
 "reaching": 790,
 "hiking": 791,
 "relaxing": 792,
 "digging": 793,
 "below": 794,
 "shallow": 795,
 "wheel": 796,
 "performance": 797,
 "i": 798,
 "members": 799,
 "tunnel": 800,
 "atop": 801,
 "passes": 802,
 "catching": 803,
 "hugging": 804,
 "cat": 805,
 "d@@": 806,
 "square": 807,
 "flip": 808,
 "bicyclist": 809,
 "shovel": 810,
 "balls": 811,
 "van": 812,
 "foot": 813,
 "catches": 814,
 "gives": 815,
 "microscope": 816,
 "sled": 817,
 "fun": 818,
 "chef": 819,
 "drum": 820,
 "here": 821,
 "climb": 822,
 "prepare": 823,
 "stunt": 824,
 "shows": 825,
 "kick": 826,
 "tattoo": 827,
 "flies": 828,
 "garden": 829,
 "leaping": 830,
 "resting": 831,
 "sweeping": 832,
 "sleeps": 833,
 "&apos;": 834,
 "coats": 835,
 "upside": 836,
 "desert": 837,
 "cold": 838,
 "conversing": 839,
 "lots": 840,
 "hoodie": 841,
 "karate": 842,
 "trunks": 843,
 "er": 844,
 "hose": 845,
 "teeth": 846,
 "individuals": 847,
 "friend": 848,
 "e": 849,
 "splashing": 850,
 "pond": 851,
 "tire": 852,
 "sculpture": 853,
 "photograph": 854,
 "beige": 855,
 "daughter": 856,
 "move": 857,
 "wrestling": 858,
 "deep": 859,
 "bat": 860,
 "telescope": 861,
 "these": 862,
 "town": 863,
 "well": 864,
 "points": 865,
 "plants": 866,
 "g@@": 867,
 "t": 868,
 "how": 869,
 "held": 870,
 "jogging": 871,
 "underneath": 872,
 "y": 873,
 "pier": 874,
 "ers": 875,
 "lone": 876,
 "customers": 877,
 "roller": 878,
 "cane": 879,
 "waters": 880,
 "ing": 881,
 "hiker": 882,
 "mat": 883,
 "cyclist": 884,
 "de@@": 885,
 "without": 886,
 "cut": 887,
 "moving": 888,
 "including": 889,
 "shoulders": 890,
 "project": 891,
 "local": 892,
 "cloth": 893,
 "carnival": 894,
 "opposing": 895,
 "eat": 896,
 "themselves": 897,
 "tricks": 898,
 "makeup": 899,
 "trampoline": 900,
 "mural": 901,
 "taken": 902,
 "racket": 903,
 "pulled": 904,
 "fight": 905,
 "produce": 906,
 "crying": 907,
 "un@@": 908,
 "dinner": 909,
 "gun": 910,
 "crosswalk": 911,
 "runners": 912,
 "block": 913,
 "matching": 914,
 "straw": 915,
 "wooded": 916,
 "infant": 917,
 "lab": 918,
 "closed": 919,
 "trash": 920,
 "p@@": 921,
 "wear": 922,
 "nose": 923,
 "sewing": 924,
 "stuffed": 925,
 "opening": 926,
 "picnic": 927,
 "o@@": 928,
 "athlete": 929,
 "ring": 930,
 "surface": 931,
 "sing": 932,
 "booth": 933,
 "attempts": 934,
 "bicyclists": 935,
 "rolling": 936,
 "shoe": 937,
 "dances": 938,
 "gymnast": 939,
 "performer": 940,
 "teenagers": 941,
 "center": 942,
 "lays": 943,
 "pedestrians": 944,
 "pitcher": 945,
 "boxes": 946,
 "chases": 947,
 "lunch": 948,
 "skis": 949,
 "himself": 950,
 "cheerleaders": 951,
 "balcony": 952,
 "cow": 953,
 "blouse": 954,
 "lo@@": 955,
 "third": 956,
 "slope": 957,
 "sandy": 958,
 "softball": 959,
 "circle": 960,
 "help": 961,
 "hikers": 962,
 "pushes": 963,
 "goes": 964,
 "oriental": 965,
 "staircase": 966,
 "indoor": 967,
 "turn": 968,
 "covering": 969,
 "device": 970,
 "bent": 971,
 "kind": 972,
 "puts": 973,
 "pulls": 974,
 "rest": 975,
 "ed": 976,
 "not": 977,
 "formal": 978,
 "deck": 979,
 "log": 980,
 "paved": 981,
 "seven": 982,
 "speaks": 983,
 "neck": 984,
 "in@@": 985,
 "gate": 986,
 "festival": 987,
 "swims": 988,
 "hoop": 989,
 "wetsuit": 990,
 "books": 991,
 "see": 992,
 "robe": 993,
 "overalls": 994,
 "drives": 995,
 "dancer": 996,
 "shaking": 997,
 "gentlemen": 998,
 "driver": 999,
 "evening": 1000,
 "marching": 1001,
 "heavy": 1002,
 "fallen": 1003,
 "enjoys": 1004,
 "grocery": 1005,
 "pe@@": 1006,
 "lies": 1007,
 "ar@@": 1008,
 "sheet": 1009,
 "robes": 1010,
 "puddle": 1011,
 "stream": 1012,
 "brown-haired": 1013,
 "clear": 1014,
 "i@@": 1015,
 "wrapped": 1016,
 "khaki": 1017,
 "protective": 1018,
 "ro@@": 1019,
 "jean": 1020,
 "tracks": 1021,
 "ledge": 1022,
 "porch": 1023,
 "foreign": 1024,
 "waterfall": 1025,
 "nice": 1026,
 "hammer": 1027,
 "garb": 1028,
 "red-haired": 1029,
 "teenager": 1030,
 "hangs": 1031,
 "kicks": 1032,
 "ship": 1033,
 "native": 1034,
 "cloudy": 1035,
 "lift": 1036,
 "shaving": 1037,
 "kayak": 1038,
 "pouring": 1039,
 "pot": 1040,
 "laundry": 1041,
 "fingers": 1042,
 "steep": 1043,
 "golden": 1044,
 "birds": 1045,
 "reaches": 1046,
 "soldiers": 1047,
 "fair": 1048,
 "arena": 1049,
 "saxophone": 1050,
 "paddling": 1051,
 "di@@": 1052,
 "poles": 1053,
 "eye": 1054,
 "put": 1055,
 "attached": 1056,
 "airplane": 1057,
 "shooting": 1058,
 "piano": 1059,
 "ts": 1060,
 "skirts": 1061,
 "backyard": 1062,
 "red-hair": 1063,
 "checking": 1064,
 "4": 1065,
 "palm": 1066,
 "sea": 1067,
 "podium": 1068,
 "colors": 1069,
 "blocks": 1070,
 "shoveling": 1071,
 "luggage": 1072,
 "sale": 1073,
 "opposite": 1074,
 "camouflage": 1075,
 "seat": 1076,
 "kiss": 1077,
 "soldier": 1078,
 "curb": 1079,
 "image": 1080,
 "pavement": 1081,
 "tops": 1082,
 "cones": 1083,
 "type": 1084,
 "polo": 1085,
 "f@@": 1086,
 "inflatable": 1087,
 "mound": 1088,
 "rugby": 1089,
 "wine": 1090,
 "poster": 1091,
 "hula": 1092,
 "wheelchair": 1093,
 "balancing": 1094,
 "m@@": 1095,
 "part": 1096,
 "denim": 1097,
 "string": 1098,
 "tongue": 1099,
 "windows": 1100,
 "goalie": 1101,
 "clean": 1102,
 "o": 1103,
 "laugh": 1104,
 "student": 1105,
 "married": 1106,
 "musician": 1107,
 "bottom": 1108,
 "cyclists": 1109,
 "floating": 1110,
 "low": 1111,
 "happily": 1112,
 "bread": 1113,
 "b@@": 1114,
 "stool": 1115,
 "er@@": 1116,
 "york": 1117,
 "buying": 1118,
 "motorcycles": 1119,
 "try": 1120,
 "professional": 1121,
 "swimsuit": 1122,
 "keyboard": 1123,
 "shade": 1124,
 "a@@": 1125,
 "bikers": 1126,
 "fresh": 1127,
 "juggling": 1128,
 "raft": 1129,
 "tools": 1130,
 "curly": 1131,
 "fall": 1132,
 "fabric": 1133,
 "courtyard": 1134,
 "frame": 1135,
 "eats": 1136,
 "laughs": 1137,
 "ly": 1138,
 "tractor": 1139,
 "fans": 1140,
 "flight": 1141,
 "riders": 1142,
 "5": 1143,
 "round": 1144,
 "railroad": 1145,
 "sell": 1146,
 "walls": 1147,
 "moves": 1148,
 "touching": 1149,
 "carriage": 1150,
 "t@@": 1151,
 "pajamas": 1152,
 "club": 1153,
 "n@@": 1154,
 "jerseys": 1155,
 "living": 1156,
 "scaffolding": 1157,
 "either": 1158,
 "en@@": 1159,
 "multiple": 1160,
 "plane": 1161,
 "knee": 1162,
 "style": 1163,
 "bubble": 1164,
 "goods": 1165,
 "use": 1166,
 "groom": 1167,
 "guard": 1168,
 "socks": 1169,
 "hurdle": 1170,
 "acoustic": 1171,
 "santa": 1172,
 "surf": 1173,
 "appear": 1174,
 "backwards": 1175,
 "bandanna": 1176,
 "floral": 1177,
 "shown": 1178,
 "nap": 1179,
 "spray": 1180,
 "plant": 1181,
 "suspended": 1182,
 "boats": 1183,
 "cheering": 1184,
 "pair": 1185,
 "marketplace": 1186,
 "garbage": 1187,
 "you": 1188,
 "closeup": 1189,
 "bucking": 1190,
 "m": 1191,
 "al@@": 1192,
 "ted": 1193,
 "fenced": 1194,
 "hooded": 1195,
 "escalator": 1196,
 "backpacks": 1197,
 "hood": 1198,
 "landscape": 1199,
 "dry": 1200,
 "animals": 1201,
 "step": 1202,
 "kneels": 1203,
 "long-haired": 1204,
 "chain": 1205,
 "advertisement": 1206,
 "towel": 1207,
 "stove": 1208,
 "german": 1209,
 "magazine": 1210,
 "direction": 1211,
 "sheep": 1212,
 "serving": 1213,
 "welding": 1214,
 "caught": 1215,
 "hay": 1216,
 "japanese": 1217,
 "raised": 1218,
 "underwater": 1219,
 "airport": 1220,
 "paints": 1221,
 "pipe": 1222,
 "plaza": 1223,
 "land": 1224,
 "dining": 1225,
 "climber": 1226,
 "things": 1227,
 "brushing": 1228,
 "obstacle": 1229,
 "ti@@": 1230,
 "ting": 1231,
 "orchestra": 1232,
 "checkered": 1233,
 "tube": 1234,
 "sport": 1235,
 "post": 1236,
 "bending": 1237,
 "grilling": 1238,
 "thrown": 1239,
 "candy": 1240,
 "vehicles": 1241,
 "operating": 1242,
 "led": 1243,
 "referee": 1244,
 "caucasian": 1245,
 "money": 1246,
 "ropes": 1247,
 "teacher": 1248,
 "participating": 1249,
 "individual": 1250,
 "neon": 1251,
 "bmx": 1252,
 "amusement": 1253,
 "athletic": 1254,
 "v@@": 1255,
 "summer": 1256,
 "examining": 1257,
 "seems": 1258,
 "mom": 1259,
 "ds": 1260,
 "gravel": 1261,
 "!": 1262,
 "decorated": 1263,
 "fast": 1264,
 "tourists": 1265,
 "hitting": 1266,
 "passengers": 1267,
 "crouches": 1268,
 "button": 1269,
 "attempt": 1270,
 "chest": 1271,
 "harness": 1272,
 "rowing": 1273,
 "benches": 1274,
 "wagon": 1275,
 "peace": 1276,
 "sticking": 1277,
 "only": 1278,
 "tub": 1279,
 "haircut": 1280,
 "good": 1281,
 "photographs": 1282,
 "cone": 1283,
 "map": 1284,
 "sharing": 1285,
 "heels": 1286,
 "barbecue": 1287,
 "rests": 1288,
 "compete": 1289,
 "atv": 1290,
 "feeding": 1291,
 "pit": 1292,
 "opponent": 1293,
 "po@@": 1294,
 "firefighters": 1295,
 "print": 1296,
 "ch@@": 1297,
 "an@@": 1298,
 "t-shirts": 1299,
 "scuba": 1300,
 "co@@": 1301,
 "sets": 1302,
 "(": 1303,
 "practice": 1304,
 "la@@": 1305,
 "studio": 1306,
 "racer": 1307,
 "presentation": 1308,
 "hallway": 1309,
 "muddy": 1310,
 "garage": 1311,
 "long-sleeved": 1312,
 "drummer": 1313,
 "snowboarding": 1314,
 "fly": 1315,
 "ears": 1316,
 "jumpsuit": 1317,
 "navy": 1318,
 "n": 1319,
 "sandwich": 1320,
 "but": 1321,
 "carpet": 1322,
 "eight": 1323,
 "headscarf": 1324,
 "hall": 1325,
 "guitars": 1326,
 "cleans": 1327,
 "groups": 1328,
 "racetrack": 1329,
 "motorcyclist": 1330,
 "snowboard": 1331,
 "tool": 1332,
 "mo@@": 1333,
 "mustache": 1334,
 "r@@": 1335,
 "bathroom": 1336,
 "speech": 1337,
 "start": 1338,
 "figure": 1339,
 "stones": 1340,
 "wide": 1341,
 "action": 1342,
 "jungle": 1343,
 "skateboards": 1344,
 "u@@": 1345,
 "sporting": 1346,
 ")": 1347,
 "se@@": 1348,
 "policeman": 1349,
 "model": 1350,
 "also": 1351,
 "ling": 1352,
 "patio": 1353,
 "pull": 1354,
 "sink": 1355,
 "ear": 1356,
 "motocross": 1357,
 "wire": 1358,
 "fruits": 1359,
 "machinery": 1360,
 "herself": 1361,
 "boardwalk": 1362,
 "discussion": 1363,
 "l": 1364,
 "k": 1365,
 "indoors": 1366,
 "sells": 1367,
 "smoke": 1368,
 "apple": 1369,
 "gr@@": 1370,
 "shoot": 1371,
 "leaving": 1372,
 "puck": 1373,
 "coach": 1374,
 "slides": 1375,
 "stopped": 1376,
 "bushes": 1377,
 "to@@": 1378,
 "narrow": 1379,
 "bath": 1380,
 "crouching": 1381,
 "horseback": 1382,
 "routine": 1383,
 "intersection": 1384,
 "observe": 1385,
 "tag": 1386,
 "half": 1387,
 "beam": 1388,
 "dune": 1389,
 "museum": 1390,
 "amp": 1391,
 "tattooed": 1392,
 "neighborhood": 1393,
 "ceiling": 1394,
 "baskets": 1395,
 "swimmer": 1396,
 "medical": 1397,
 "snow-covered": 1398,
 "cricket": 1399,
 "beverage": 1400,
 "ding": 1401,
 "trumpet": 1402,
 "do@@": 1403,
 "vendors": 1404,
 "petting": 1405,
 "great": 1406,
 "college": 1407,
 "lane": 1408,
 "hillside": 1409,
 "y@@": 1410,
 "dark-skinned": 1411,
 "ahead": 1412,
 "fancy": 1413,
 "th@@": 1414,
 "st@@": 1415,
 "possibly": 1416,
 "bow": 1417,
 "buy": 1418,
 "fencing": 1419,
 "tile": 1420,
 "maroon": 1421,
 "container": 1422,
 "mostly": 1423,
 "k@@": 1424,
 "dishes": 1425,
 "uniformed": 1426,
 "shepherd": 1427,
 "be@@": 1428,
 "lay": 1429,
 "squatting": 1430,
 "mall": 1431,
 "skates": 1432,
 "protest": 1433,
 "pieces": 1434,
 "outstretched": 1435,
 "read": 1436,
 "nets": 1437,
 "rubber": 1438,
 "funny": 1439,
 "hugs": 1440,
 "celebrating": 1441,
 "birthday": 1442,
 "live": 1443,
 "helps": 1444,
 "song": 1445,
 "chase": 1446,
 "ac@@": 1447,
 "excited": 1448,
 "microphones": 1449,
 "wheels": 1450,
 "cardboard": 1451,
 "brush": 1452,
 "position": 1453,
 "bottles": 1454,
 "army": 1455,
 "d": 1456,
 "hospital": 1457,
 "st": 1458,
 "clay": 1459,
 "ate": 1460,
 "buckets": 1461,
 "ornate": 1462,
 "entrance": 1463,
 "puppy": 1464,
 "folding": 1465,
 "mixing": 1466,
 "youth": 1467,
 "choir": 1468,
 "seats": 1469,
 "guitarist": 1470,
 "finger": 1471,
 "polka": 1472,
 "conference": 1473,
 "us": 1474,
 "heart": 1475,
 "rink": 1476,
 "sleeveless": 1477,
 "storefront": 1478,
 "stack": 1479,
 "spinning": 1480,
 "firetruck": 1481,
 "color": 1482,
 "ks": 1483,
 "tattoos": 1484,
 "pick": 1485,
 "shaped": 1486,
 "sword": 1487,
 "member": 1488,
 "we": 1489,
 "no@@": 1490,
 "eastern": 1491,
 "spraying": 1492,
 "got": 1493,
 "item": 1494,
 "grinding": 1495,
 "furniture": 1496,
 "flipping": 1497,
 "lines": 1498,
 "doctor": 1499,
 "vegetable": 1500,
 "turning": 1501,
 "jockey": 1502,
 "ethnic": 1503,
 "blows": 1504,
 "moment": 1505,
 "rural": 1506,
 "bars": 1507,
 "me@@": 1508,
 "bear": 1509,
 "doors": 1510,
 "apartment": 1511,
 "mohawk": 1512,
 "inspecting": 1513,
 "cuts": 1514,
 "belt": 1515,
 "derby": 1516,
 "balance": 1517,
 "ine": 1518,
 "coloring": 1519,
 "dreadlocks": 1520,
 "l@@": 1521,
 "les": 1522,
 "library": 1523,
 "broom": 1524,
 "reflective": 1525,
 "backs": 1526,
 "calf": 1527,
 "finish": 1528,
 "con@@": 1529,
 "space": 1530,
 "c@@": 1531,
 "rough": 1532,
 "leading": 1533,
 "fisherman": 1534,
 "handstand": 1535,
 "scenery": 1536,
 "stripes": 1537,
 "ribbon": 1538,
 "viewing": 1539,
 "stretching": 1540,
 "smokes": 1541,
 "bowls": 1542,
 "stroll": 1543,
 "stares": 1544,
 "boxing": 1545,
 "raises": 1546,
 "first": 1547,
 "jewelry": 1548,
 "starting": 1549,
 "balding": 1550,
 "sofa": 1551,
 "television": 1552,
 "pigeons": 1553,
 "bass": 1554,
 "rainy": 1555,
 "computers": 1556,
 "free": 1557,
 "factory": 1558,
 "&amp;": 1559,
 "si@@": 1560,
 "listens": 1561,
 "emergency": 1562,
 "snack": 1563,
 "pen": 1564,
 "my": 1565,
 "bu@@": 1566,
 "fix": 1567,
 "clad": 1568,
 "banner": 1569,
 "crew": 1570,
 "speed": 1571,
 "at@@": 1572,
 "motorbike": 1573,
 "naked": 1574,
 "discussing": 1575,
 "horn": 1576,
 "objects": 1577,
 "warm": 1578,
 "el@@": 1579,
 "lifting": 1580,
 "candles": 1581,
 "nighttime": 1582,
 "or@@": 1583,
 "pitch": 1584,
 "tied": 1585,
 "london": 1586,
 "gymnasium": 1587,
 "moped": 1588,
 "broken": 1589,
 "balances": 1590,
 "hotel": 1591,
 "ter": 1592,
 "carving": 1593,
 "houses": 1594,
 "barrel": 1595,
 "dish": 1596,
 "ex@@": 1597,
 "tourist": 1598,
 "lamp": 1599,
 "surrounding": 1600,
 "pizza": 1601,
 "fluffy": 1602,
 "on@@": 1603,
 "1": 1604,
 "intently": 1605,
 "duck": 1606,
 "stairway": 1607,
 "card": 1608,
 "batter": 1609,
 "reach": 1610,
 "com@@": 1611,
 "approaching": 1612,
 "farm": 1613,
 "following": 1614,
 "float": 1615,
 "crane": 1616,
 "dead": 1617,
 "der": 1618,
 "h@@": 1619,
 "ri@@": 1620,
 "castle": 1621,
 "plates": 1622,
 "c": 1623,
 "gas": 1624,
 "flip-flops": 1625,
 "chalk": 1626,
 "chefs": 1627,
 "overhead": 1628,
 "ation": 1629,
 "spread": 1630,
 "kite": 1631,
 "teammate": 1632,
 "flowered": 1633,
 "downtown": 1634,
 "catcher": 1635,
 "repair": 1636,
 "participate": 1637,
 "material": 1638,
 "shaved": 1639,
 "electronic": 1640,
 "thin": 1641,
 "raising": 1642,
 "observing": 1643,
 "&apos;t": 1644,
 "fireman": 1645,
 "tu@@": 1646,
 "unicycle": 1647,
 "se": 1648,
 "cameras": 1649,
 "relax": 1650,
 "papers": 1651,
 "mobile": 1652,
 "village": 1653,
 "turns": 1654,
 "keep": 1655,
 "blow": 1656,
 "terrain": 1657,
 "newborn": 1658,
 "numerous": 1659,
 "fan": 1660,
 "theater": 1661,
 "barber": 1662,
 "redheaded": 1663,
 "per@@": 1664,
 "follows": 1665,
 "wrestle": 1666,
 "ls": 1667,
 "security": 1668,
 "ballerina": 1669,
 "forward": 1670,
 "liquid": 1671,
 "pine": 1672,
 "hoops": 1673,
 "name": 1674,
 "patient": 1675,
 "ps": 1676,
 "protesting": 1677,
 "more": 1678,
 "necklace": 1679,
 "engine": 1680,
 "branch": 1681,
 "pottery": 1682,
 "called": 1683,
 "engaged": 1684,
 "partially": 1685,
 "shades": 1686,
 "training": 1687,
 "headband": 1688,
 "elephant": 1689,
 "directions": 1690,
 "le": 1691,
 "it@@": 1692,
 "present": 1693,
 "control": 1694,
 "smaller": 1695,
 "advertising": 1696,
 "odd": 1697,
 "lounging": 1698,
 "crosses": 1699,
 "amongst": 1700,
 "ne@@": 1701,
 "hits": 1702,
 "taxi": 1703,
 "beneath": 1704,
 "wife": 1705,
 "photos": 1706,
 "shovels": 1707,
 "ated": 1708,
 "swimmers": 1709,
 "steel": 1710,
 "-like": 1711,
 "y-@@": 1712,
 "silly": 1713,
 "leads": 1714,
 "hang": 1715,
 "gift": 1716,
 "as@@": 1717,
 "shops": 1718,
 "rows": 1719,
 "story": 1720,
 "share": 1721,
 "skiers": 1722,
 "casual": 1723,
 "bo@@": 1724,
 "machines": 1725,
 "ho@@": 1726,
 "aisle": 1727,
 "rainbow": 1728,
 "races": 1729,
 "hug": 1730,
 "donkey": 1731,
 "z@@": 1732,
 "cool": 1733,
 "cobblestone": 1734,
 "calm": 1735,
 "pre@@": 1736,
 "world": 1737,
 "firemen": 1738,
 "loading": 1739,
 "guns": 1740,
 "job": 1741,
 "al": 1742,
 "slightly": 1743,
 "upon": 1744,
 "binoculars": 1745,
 "shining": 1746,
 "cape": 1747,
 "star": 1748,
 "boards": 1749,
 "sprinkler": 1750,
 "receiving": 1751,
 "car@@": 1752,
 "weaving": 1753,
 "glove": 1754,
 "splashes": 1755,
 "lounge": 1756,
 "tower": 1757,
 "whilst": 1758,
 "pretty": 1759,
 "converse": 1760,
 "admiring": 1761,
 "we@@": 1762,
 "airborne": 1763,
 "cook": 1764,
 "wi@@": 1765,
 "most": 1766,
 "teaching": 1767,
 "ad@@": 1768,
 "fake": 1769,
 "repairs": 1770,
 "interacting": 1771,
 "trunk": 1772,
 "straight": 1773,
 "tents": 1774,
 "biking": 1775,
 "passenger": 1776,
 "push": 1777,
 "bank": 1778,
 "shakes": 1779,
 "camel": 1780,
 "rollerblades": 1781,
 "crafts": 1782,
 "king": 1783,
 "caps": 1784,
 "angel": 1785,
 "ders": 1786,
 "pan": 1787,
 "billboard": 1788,
 "act": 1789,
 "parents": 1790,
 "pillow": 1791,
 "homeless": 1792,
 "athletes": 1793,
 "peering": 1794,
 "corn": 1795,
 "performers": 1796,
 "wading": 1797,
 "carry": 1798,
 "photographed": 1799,
 "trailer": 1800,
 "sack": 1801,
 "wings": 1802,
 "cups": 1803,
 "observes": 1804,
 "waterfront": 1805,
 "sh@@": 1806,
 "ar": 1807,
 "fe@@": 1808,
 "lead": 1809,
 "flute": 1810,
 "dimly": 1811,
 "sized": 1812,
 "oven": 1813,
 "telephone": 1814,
 "burgundy": 1815,
 "rod": 1816,
 "knit": 1817,
 "checks": 1818,
 "barrier": 1819,
 "come": 1820,
 "saw": 1821,
 "paddle": 1822,
 "flips": 1823,
 "similar": 1824,
 "eggs": 1825,
 "bare": 1826,
 "filling": 1827,
 "bin": 1828,
 "waterway": 1829,
 "ity": 1830,
 "been": 1831,
 "j@@": 1832,
 "gestures": 1833,
 "lifted": 1834,
 "overweight": 1835,
 "studying": 1836,
 "science": 1837,
 "stomach": 1838,
 "pu@@": 1839,
 "entering": 1840,
 "farmer": 1841,
 "chainsaw": 1842,
 "groceries": 1843,
 "spoon": 1844,
 "check": 1845,
 "mid": 1846,
 "form": 1847,
 "ked": 1848,
 "bleachers": 1849,
 "le@@": 1850,
 "tropical": 1851,
 "cheer": 1852,
 "tires": 1853,
 "was": 1854,
 "spotted": 1855,
 "bystanders": 1856,
 "order": 1857,
 "browsing": 1858,
 "man@@": 1859,
 "coaster": 1860,
 "greyhound": 1861,
 "messy": 1862,
 "carts": 1863,
 "pro@@": 1864,
 "attention": 1865,
 "dough": 1866,
 "autumn": 1867,
 "meeting": 1868,
 "if": 1869,
 "lacrosse": 1870,
 "consisting": 1871,
 "sneakers": 1872,
 "landing": 1873,
 "debris": 1874,
 "te@@": 1875,
 "laptops": 1876,
 "nature": 1877,
 "comes": 1878,
 "ceremony": 1879,
 "examines": 1880,
 "places": 1881,
 "wheelbarrow": 1882,
 "sailing": 1883,
 "skater": 1884,
 "dusk": 1885,
 "praying": 1886,
 "so@@": 1887,
 "drill": 1888,
 "dad": 1889,
 "modern": 1890,
 "case": 1891,
 "customer": 1892,
 "vi@@": 1893,
 "official": 1894,
 "paddles": 1895,
 "tea": 1896,
 "target": 1897,
 "snowsuit": 1898,
 "screaming": 1899,
 "listen": 1900,
 "u": 1901,
 "still": 1902,
 "knife": 1903,
 "wrap": 1904,
 "tee": 1905,
 "games": 1906,
 "yoga": 1907,
 "clapping": 1908,
 "exhibit": 1909,
 "sweeps": 1910,
 "spanish": 1911,
 "gymnastics": 1912,
 "wires": 1913,
 "kayaks": 1914,
 "th": 1915,
 "repairing": 1916,
 "beanie": 1917,
 "teal": 1918,
 "tossing": 1919,
 "tray": 1920,
 "texas": 1921,
 "long-sleeve": 1922,
 "ta@@": 1923,
 "tv": 1924,
 "applying": 1925,
 "attending": 1926,
 "tackle": 1927,
 "drive": 1928,
 "complete": 1929,
 "ded": 1930,
 "knees": 1931,
 "cards": 1932,
 "w@@": 1933,
 "rollerblading": 1934,
 "newly": 1935,
 "inspects": 1936,
 "give": 1937,
 "visiting": 1938,
 "monument": 1939,
 "skaters": 1940,
 "touches": 1941,
 "puppies": 1942,
 "boulder": 1943,
 "g": 1944,
 "pack": 1945,
 "thumbs": 1946,
 "olympics": 1947,
 "wheelie": 1948,
 "teen": 1949,
 "cooks": 1950,
 "lecture": 1951,
 "stare": 1952,
 "seem": 1953,
 "countryside": 1954,
 "wild": 1955,
 "scooters": 1956,
 "bagpipes": 1957,
 "merchandise": 1958,
 "dust": 1959,
 "iron": 1960,
 "ballet": 1961,
 "paperwork": 1962,
 "chicken": 1963,
 "patterned": 1964,
 "suitcase": 1965,
 "movie": 1966,
 "exercise": 1967,
 "diver": 1968,
 "p": 1969,
 "over@@": 1970,
 "mar@@": 1971,
 "pillows": 1972,
 "wrestler": 1973,
 "ste@@": 1974,
 "bamboo": 1975,
 "pilot": 1976,
 "tape": 1977,
 "serves": 1978,
 "gi@@": 1979,
 "heading": 1980,
 "so": 1981,
 "shadows": 1982,
 "shoppers": 1983,
 "newspapers": 1984,
 "placing": 1985,
 "cowboys": 1986,
 "beverages": 1987,
 "stops": 1988,
 "w": 1989,
 "visible": 1990,
 "forehead": 1991,
 "doll": 1992,
 "pigtails": 1993,
 "biting": 1994,
 "6": 1995,
 "cello": 1996,
 "rickshaw": 1997,
 "falls": 1998,
 "wares": 1999,
 "handing": 2000,
 "bite": 2001,
 "bricks": 2002,
 "highway": 2003,
 "umpire": 2004,
 "blankets": 2005,
 "alleyway": 2006,
 "juice": 2007,
 "involved": 2008,
 "tricycle": 2009,
 "burning": 2010,
 "john": 2011,
 "printed": 2012,
 "t-@@": 2013,
 "planting": 2014,
 "shoreline": 2015,
 "formation": 2016,
 "opens": 2017,
 "african-american": 2018,
 "lifts": 2019,
 "record": 2020,
 "craft": 2021,
 "leaf": 2022,
 "focused": 2023,
 "trucks": 2024,
 "trip": 2025,
 "tion": 2026,
 "tackling": 2027,
 "gathers": 2028,
 "cage": 2029,
 "arcade": 2030,
 "descent": 2031,
 "traveling": 2032,
 "ful": 2033,
 "ponytail": 2034,
 "banjo": 2035,
 "cheek": 2036,
 "rally": 2037,
 "company": 2038,
 "black-haired": 2039,
 "placed": 2040,
 "artwork": 2041,
 "logs": 2042,
 "hand@@": 2043,
 "min@@": 2044,
 "camping": 2045,
 "turquoise": 2046,
 "ating": 2047,
 "ve@@": 2048,
 "teens": 2049,
 "dives": 2050,
 "injured": 2051,
 "venue": 2052,
 "2012": 2053,
 "loom": 2054,
 "china": 2055,
 "parachute": 2056,
 "speak": 2057,
 "adjusting": 2058,
 "il@@": 2059,
 "salon": 2060,
 "underwear": 2061,
 "covers": 2062,
 "backdrop": 2063,
 "folded": 2064,
 "ses": 2065,
 "crossed": 2066,
 "crouched": 2067,
 "rollerskating": 2068,
 "supplies": 2069,
 "weather": 2070,
 "laundromat": 2071,
 "bi@@": 2072,
 "creek": 2073,
 "fashion": 2074,
 "surgery": 2075,
 "patch": 2076,
 "carefully": 2077,
 "sunlight": 2078,
 "poor": 2079,
 "rice": 2080,
 "khakis": 2081,
 "soda": 2082,
 "auditorium": 2083,
 "hut": 2084,
 "far": 2085,
 "played": 2086,
 "strange": 2087,
 "department": 2088,
 "jet": 2089,
 "sides": 2090,
 "location": 2091,
 "picks": 2092,
 "torch": 2093,
 "kayaking": 2094,
 "mower": 2095,
 "larger": 2096,
 "als": 2097,
 "chess": 2098,
 "meet": 2099,
 "mug": 2100,
 "snowshoes": 2101,
 "celebration": 2102,
 "cans": 2103,
 "practices": 2104,
 "tights": 2105,
 "watched": 2106,
 "suspenders": 2107,
 "asians": 2108,
 "firefighter": 2109,
 "done": 2110,
 "closely": 2111,
 "tiny": 2112,
 "ties": 2113,
 "couples": 2114,
 "dusty": 2115,
 "tr@@": 2116,
 "ble": 2117,
 "motorized": 2118,
 "passersby": 2119,
 "playfully": 2120,
 "dj": 2121,
 "ons": 2122,
 "headed": 2123,
 "chatting": 2124,
 "motorcyclists": 2125,
 "ur@@": 2126,
 "scouts": 2127,
 "yarn": 2128,
 "aged": 2129,
 "point": 2130,
 "arch": 2131,
 "floats": 2132,
 "learning": 2133,
 "rapids": 2134,
 "sp@@": 2135,
 "trolley": 2136,
 "range": 2137,
 "swimsuits": 2138,
 "magazines": 2139,
 "lighted": 2140,
 "casually": 2141,
 "sc@@": 2142,
 "apart": 2143,
 "ru@@": 2144,
 "cute": 2145,
 "gazes": 2146,
 "maintenance": 2147,
 "fla@@": 2148,
 "lens": 2149,
 "celebrate": 2150,
 "laden": 2151,
 "involving": 2152,
 "located": 2153,
 "our": 2154,
 "transportation": 2155,
 "america": 2156,
 "gaze": 2157,
 "shirted": 2158,
 "quarterback": 2159,
 "whom": 2160,
 "oranges": 2161,
 "riot": 2162,
 "pots": 2163,
 "activity": 2164,
 "products": 2165,
 "hike": 2166,
 "fully": 2167,
 "second": 2168,
 "gu@@": 2169,
 "li@@": 2170,
 "experiment": 2171,
 "ent": 2172,
 "canvas": 2173,
 "approaches": 2174,
 "rooftop": 2175,
 "ings": 2176,
 "goat": 2177,
 "guards": 2178,
 "ping": 2179,
 "racers": 2180,
 "branches": 2181,
 "mexican": 2182,
 "#": 2183,
 "out@@": 2184,
 "chalkboard": 2185,
 "qu@@": 2186,
 "ss": 2187,
 "stall": 2188,
 "blood": 2189,
 "belts": 2190,
 "d-@@": 2191,
 "ad": 2192,
 "bouquet": 2193,
 "juggles": 2194,
 "pins": 2195,
 "serve": 2196,
 "bs": 2197,
 "lobby": 2198,
 "valley": 2199,
 "trashcan": 2200,
 "fur": 2201,
 "single": 2202,
 "link": 2203,
 "hotdog": 2204,
 "scaffold": 2205,
 "ler": 2206,
 "am": 2207,
 "pin": 2208,
 "bar@@": 2209,
 "displays": 2210,
 "walked": 2211,
 "contraption": 2212,
 "monitor": 2213,
 "embracing": 2214,
 "workshop": 2215,
 "touch": 2216,
 "ches": 2217,
 "collared": 2218,
 "gallery": 2219,
 "stilts": 2220,
 "portrait": 2221,
 "facility": 2222,
 "gray-haired": 2223,
 "shape": 2224,
 "earphones": 2225,
 "cheese": 2226,
 "leap": 2227,
 "toddlers": 2228,
 "upward": 2229,
 "sprayed": 2230,
 "march": 2231,
 "incline": 2232,
 "handrail": 2233,
 "silhouette": 2234,
 "workout": 2235,
 "blazer": 2236,
 "for@@": 2237,
 "cop": 2238,
 "morning": 2239,
 "will": 2240,
 "rafting": 2241,
 "turned": 2242,
 "numbers": 2243,
 "washes": 2244,
 "leotard": 2245,
 "ch": 2246,
 "amidst": 2247,
 "scarves": 2248,
 "lighting": 2249,
 "hiding": 2250,
 "ched": 2251,
 "thumb": 2252,
 "jo@@": 2253,
 "roadside": 2254,
 "frozen": 2255,
 "nurses": 2256,
 "cor@@": 2257,
 "quickly": 2258,
 "surfs": 2259,
 "asia": 2260,
 "finishing": 2261,
 "tribal": 2262,
 "decorative": 2263,
 "sideways": 2264,
 "load": 2265,
 "inter@@": 2266,
 "headdress": 2267,
 "helicopter": 2268,
 "chopping": 2269,
 "sta@@": 2270,
 "displaying": 2271,
 "furry": 2272,
 "stepping": 2273,
 "process": 2274,
 "ws": 2275,
 "let": 2276,
 "pads": 2277,
 "ard": 2278,
 "mop": 2279,
 "ge": 2280,
 "care": 2281,
 "sts": 2282,
 "leggings": 2283,
 "brother": 2284,
 "peeking": 2285,
 "driveway": 2286,
 "creating": 2287,
 "short-haired": 2288,
 "ger": 2289,
 "ke": 2290,
 "olympic": 2291,
 "hind": 2292,
 "gardening": 2293,
 "ic@@": 2294,
 "tiled": 2295,
 "fishes": 2296,
 "handle": 2297,
 "design": 2298,
 "checkers": 2299,
 "gs": 2300,
 "cab": 2301,
 "joy": 2302,
 "cloud": 2303,
 "tags": 2304,
 "painter": 2305,
 "sad": 2306,
 "menu": 2307,
 "ma@@": 2308,
 "writes": 2309,
 "foliage": 2310,
 "rings": 2311,
 "containing": 2312,
 "jumper": 2313,
 "butterfly": 2314,
 "featuring": 2315,
 "even": 2316,
 "bicycling": 2317,
 "heavily": 2318,
 "types": 2319,
 "stump": 2320,
 "tripod": 2321,
 "attractive": 2322,
 "curly-haired": 2323,
 "tri@@": 2324,
 "jumped": 2325,
 "stoop": 2326,
 "potato": 2327,
 "pet": 2328,
 "breakdancing": 2329,
 "images": 2330,
 "icy": 2331,
 "diner": 2332,
 "ticket": 2333,
 "ab@@": 2334,
 "classic": 2335,
 "grabbing": 2336,
 "me": 2337,
 "sparring": 2338,
 "ca@@": 2339,
 "ni@@": 2340,
 "sawing": 2341,
 "unique": 2342,
 "ny": 2343,
 "tending": 2344,
 "pe": 2345,
 "muzzled": 2346,
 "en": 2347,
 "f": 2348,
 "begins": 2349,
 "protesters": 2350,
 "horizon": 2351,
 "turban": 2352,
 "sniffing": 2353,
 "pattern": 2354,
 "clouds": 2355,
 "circular": 2356,
 "cleaner": 2357,
 "designs": 2358,
 "cur@@": 2359,
 "pathway": 2360,
 "ages": 2361,
 "monkey": 2362,
 "b": 2363,
 "reflection": 2364,
 "r": 2365,
 "x@@": 2366,
 "soap": 2367,
 "du@@": 2368,
 "tight": 2369,
 "tired": 2370,
 "strapped": 2371,
 "farmers": 2372,
 "ments": 2373,
 "booths": 2374,
 "jeep": 2375,
 "adjusts": 2376,
 "east": 2377,
 "dive": 2378,
 "raincoat": 2379,
 "treat": 2380,
 "chewing": 2381,
 "stacked": 2382,
 "bur@@": 2383,
 "jogs": 2384,
 "ment": 2385,
 "wind": 2386,
 "gesturing": 2387,
 "upset": 2388,
 "ally": 2389,
 "decorations": 2390,
 "really": 2391,
 "kilt": 2392,
 "rifle": 2393,
 "motor": 2394,
 "beret": 2395,
 "chocolate": 2396,
 "he@@": 2397,
 "bends": 2398,
 "crowds": 2399,
 "recording": 2400,
 "than": 2401,
 "bouncing": 2402,
 "power": 2403,
 "sorting": 2404,
 "camp": 2405,
 "pale": 2406,
 "grabs": 2407,
 "cycling": 2408,
 "belongings": 2409,
 "built": 2410,
 "head@@": 2411,
 "presenting": 2412,
 "im@@": 2413,
 "cover": 2414,
 "cu@@": 2415,
 "motion": 2416,
 "fell": 2417,
 "elmo": 2418,
 "pumpkin": 2419,
 "ge@@": 2420,
 "interesting": 2421,
 "aprons": 2422,
 "employees": 2423,
 "fi@@": 2424,
 "pencil": 2425,
 "hills": 2426,
 "am@@": 2427,
 "pinata": 2428,
 "trench": 2429,
 "french": 2430,
 "canadian": 2431,
 "brass": 2432,
 "dragging": 2433,
 "gazing": 2434,
 "crates": 2435,
 "scenic": 2436,
 "draw": 2437,
 "ations": 2438,
 "bathtub": 2439,
 "highchair": 2440,
 "love": 2441,
 "digital": 2442,
 "peer": 2443,
 "brushes": 2444,
 "service": 2445,
 "4@@": 2446,
 "dumpster": 2447,
 "els": 2448,
 "operates": 2449,
 "task": 2450,
 "section": 2451,
 "news": 2452,
 "shiny": 2453,
 "ducks": 2454,
 "sed": 2455,
 "strolls": 2456,
 "muzzle": 2457,
 "parasailing": 2458,
 "wig": 2459,
 "ss@@": 2460,
 "afternoon": 2461,
 "displayed": 2462,
 "score": 2463,
 "almost": 2464,
 "cellphones": 2465,
 "tournament": 2466,
 "sledding": 2467,
 "atm": 2468,
 "chopsticks": 2469,
 "cks": 2470,
 "plain": 2471,
 "11": 2472,
 "package": 2473,
 "accident": 2474,
 "protect": 2475,
 "because": 2476,
 "mid-@@": 2477,
 "wh@@": 2478,
 "foods": 2479,
 "lively": 2480,
 "downhill": 2481,
 "sailboat": 2482,
 "vending": 2483,
 "create": 2484,
 "stuck": 2485,
 "go@@": 2486,
 "vintage": 2487,
 "war@@": 2488,
 "variety": 2489,
 "labeled": 2490,
 "flannel": 2491,
 "commercial": 2492,
 "gown": 2493,
 "splashed": 2494,
 "spins": 2495,
 "purses": 2496,
 "barefooted": 2497,
 "grand": 2498,
 "bundle": 2499,
 "camels": 2500,
 "ance": 2501,
 "signing": 2502,
 "speeding": 2503,
 "mu@@": 2504,
 "waterskiing": 2505,
 "can@@": 2506,
 "homemade": 2507,
 "batman": 2508,
 "cries": 2509,
 "synchronized": 2510,
 "fa@@": 2511,
 "ck": 2512,
 "artists": 2513,
 "drawn": 2514,
 "toothbrush": 2515,
 "draws": 2516,
 "napping": 2517,
 "bridesmaids": 2518,
 "el": 2519,
 "projector": 2520,
 "surgical": 2521,
 "ned": 2522,
 "lu@@": 2523,
 "murky": 2524,
 "say": 2525,
 "wheeled": 2526,
 "product": 2527,
 "conductor": 2528,
 "kisses": 2529,
 "followed": 2530,
 "forested": 2531,
 "warehouse": 2532,
 "skills": 2533,
 "grab": 2534,
 "stuff": 2535,
 "mix": 2536,
 "europe": 2537,
 "banners": 2538,
 "notebook": 2539,
 "india": 2540,
 "crashing": 2541,
 "redhead": 2542,
 "win": 2543,
 "ten@@": 2544,
 "fountains": 2545,
 "ering": 2546,
 "acrobatic": 2547,
 "lanterns": 2548,
 "photographers": 2549,
 "hydrant": 2550,
 "ates": 2551,
 "cheerleading": 2552,
 "religious": 2553,
 "bartender": 2554,
 "midst": 2555,
 "underground": 2556,
 "daytime": 2557,
 "spring": 2558,
 "when": 2559,
 "muscular": 2560,
 "skinny": 2561,
 "nail": 2562,
 "hammering": 2563,
 "series": 2564,
 "spot": 2565,
 "ag@@": 2566,
 "late": 2567,
 "rug": 2568,
 "unhappy": 2569,
 "darkened": 2570,
 "mixer": 2571,
 "shadow": 2572,
 "amount": 2573,
 "much": 2574,
 "had": 2575,
 "league": 2576,
 "gesture": 2577,
 "canoes": 2578,
 "human": 2579,
 "waiter": 2580,
 "directing": 2581,
 "staff": 2582,
 "pours": 2583,
 "transit": 2584,
 "fl@@": 2585,
 "too": 2586,
 "tour": 2587,
 "packed": 2588,
 "dot": 2589,
 "de": 2590,
 "notes": 2591,
 "cherry": 2592,
 "speaker": 2593,
 "waist": 2594,
 "walmart": 2595,
 "lips": 2596,
 "buried": 2597,
 "filming": 2598,
 "ator": 2599,
 "scrubs": 2600,
 "unusual": 2601,
 "loaded": 2602,
 "abandoned": 2603,
 "shes": 2604,
 "egg": 2605,
 "somewhere": 2606,
 "lining": 2607,
 "peers": 2608,
 "canal": 2609,
 "bedroom": 2610,
 "clowns": 2611,
 "beads": 2612,
 "candle": 2613,
 "easel": 2614,
 "punch": 2615,
 "masks": 2616,
 "destination": 2617,
 "su@@": 2618,
 "ran@@": 2619,
 "figures": 2620,
 "sprays": 2621,
 "campfire": 2622,
 "war": 2623,
 "jockeys": 2624,
 "tug-of-war": 2625,
 "skies": 2626,
 "spotlight": 2627,
 "travel": 2628,
 "times": 2629,
 "tackled": 2630,
 "ol@@": 2631,
 "pocket": 2632,
 "casino": 2633,
 "fields": 2634,
 "victory": 2635,
 "pan@@": 2636,
 "monopoly": 2637,
 "2@@": 2638,
 "looked": 2639,
 "bles": 2640,
 "companion": 2641,
 "cked": 2642,
 "8": 2643,
 "licking": 2644,
 "lers": 2645,
 "hardwood": 2646,
 "ke@@": 2647,
 "medium": 2648,
 "halloween": 2649,
 "pay": 2650,
 "doesn": 2651,
 "crayons": 2652,
 "navigates": 2653,
 "establishment": 2654,
 "carrier": 2655,
 "strolling": 2656,
 "harmonica": 2657,
 "columns": 2658,
 "washer": 2659,
 "babies": 2660,
 "industrial": 2661,
 "cigar": 2662,
 "aquarium": 2663,
 "shaggy": 2664,
 "teammates": 2665,
 "hammock": 2666,
 "employee": 2667,
 "mess": 2668,
 "judges": 2669,
 "cluttered": 2670,
 "hawaiian": 2671,
 "european": 2672,
 "ty": 2673,
 "state": 2674,
 "trains": 2675,
 "fat": 2676,
 "squeezing": 2677,
 "stringed": 2678,
 "ze": 2679,
 "ple@@": 2680,
 "laboratory": 2681,
 "stretches": 2682,
 "draped": 2683,
 "pans": 2684,
 "british": 2685,
 "resort": 2686,
 "tail": 2687,
 "rugs": 2688,
 "support": 2689,
 "tubes": 2690,
 "vibrant": 2691,
 "ce@@": 2692,
 "ster": 2693,
 "disc": 2694,
 "starring": 2695,
 "woodland": 2696,
 "sted": 2697,
 "air@@": 2698,
 "chased": 2699,
 "?": 2700,
 "silhouetted": 2701,
 "frying": 2702,
 "tutu": 2703,
 "collie": 2704,
 "temple": 2705,
 "radio": 2706,
 "colorfully": 2707,
 "legged": 2708,
 "oil": 2709,
 "desks": 2710,
 "p-@@": 2711,
 "cave": 2712,
 "entertain": 2713,
 "striking": 2714,
 "seating": 2715,
 "own": 2716,
 "character": 2717,
 "sunbathing": 2718,
 "crawls": 2719,
 "grinds": 2720,
 "marker": 2721,
 "medieval": 2722,
 "ce": 2723,
 "aps": 2724,
 "railings": 2725,
 "topless": 2726,
 "nun": 2727,
 "backseat": 2728,
 "fetch": 2729,
 "typing": 2730,
 "mic": 2731,
 "bas@@": 2732,
 "broad": 2733,
 "elder": 2734,
 "policemen": 2735,
 "posed": 2736,
 "strings": 2737,
 "purchase": 2738,
 "battle": 2739,
 "monitors": 2740,
 "earth": 2741,
 "beating": 2742,
 "reception": 2743,
 "domin@@": 2744,
 "te": 2745,
 "ingredients": 2746,
 "hispanic": 2747,
 "flock": 2748,
 "-colored": 2749,
 "stance": 2750,
 "white-@@": 2751,
 "wilderness": 2752,
 "elementary": 2753,
 "poodle": 2754,
 "named": 2755,
 "ver@@": 2756,
 "laid": 2757,
 "1@@": 2758,
 "9": 2759,
 "fill": 2760,
 "bows": 2761,
 "cannon": 2762,
 "-up": 2763,
 "pony": 2764,
 "conducting": 2765,
 "wash": 2766,
 "separate": 2767,
 "deli": 2768,
 "greyhounds": 2769,
 "fireworks": 2770,
 "exiting": 2771,
 "shed": 2772,
 "daily": 2773,
 "raining": 2774,
 "mounted": 2775,
 "tiger": 2776,
 "dinosaur": 2777,
 "ous": 2778,
 "return": 2779,
 "pops": 2780,
 "fedora": 2781,
 "measuring": 2782,
 "rustic": 2783,
 "accompanied": 2784,
 "ces": 2785,
 "ans": 2786,
 "age": 2787,
 "tracksuit": 2788,
 "examine": 2789,
 "ue": 2790,
 "skydiving": 2791,
 "sting": 2792,
 "mowing": 2793,
 "lion": 2794,
 "quiet": 2795,
 "treadmill": 2796,
 "buffet": 2797,
 "sleeves": 2798,
 "boxer": 2799,
 "adorned": 2800,
 "divers": 2801,
 "per": 2802,
 "wrestlers": 2803,
 "guide": 2804,
 "9@@": 2805,
 "barely": 2806,
 "hum@@": 2807,
 "illuminated": 2808,
 "cking": 2809,
 "tarp": 2810,
 "fashioned": 2811,
 "dryer": 2812,
 "begin": 2813,
 "upwards": 2814,
 "necklaces": 2815,
 "monk": 2816,
 "fog": 2817,
 "bun@@": 2818,
 "stores": 2819,
 "seafood": 2820,
 "ordering": 2821,
 "boarding": 2822,
 "surfers": 2823,
 "scientist": 2824,
 "bananas": 2825,
 "lush": 2826,
 "newlywed": 2827,
 "pin@@": 2828,
 "lands": 2829,
 "che@@": 2830,
 "designed": 2831,
 "tre@@": 2832,
 "bush": 2833,
 "characters": 2834,
 "pyramid": 2835,
 "doctors": 2836,
 "hotdogs": 2837,
 "call": 2838,
 "snacks": 2839,
 "patrons": 2840,
 "fork": 2841,
 "marble": 2842,
 "harbor": 2843,
 "sold": 2844,
 "picket": 2845,
 "id": 2846,
 "3@@": 2847,
 "demonstration": 2848,
 "bongo": 2849,
 "vacuuming": 2850,
 "facial": 2851,
 "complex": 2852,
 "sho@@": 2853,
 "pping": 2854,
 "bend": 2855,
 "written": 2856,
 "mitt": 2857,
 "marked": 2858,
 "mascot": 2859,
 "mountainous": 2860,
 "arrow": 2861,
 "zone": 2862,
 "turkey": 2863,
 "though": 2864,
 "trotting": 2865,
 "warming": 2866,
 "cheerleader": 2867,
 "pirate": 2868,
 "contest": 2869,
 "fellow": 2870,
 "workman": 2871,
 "visor": 2872,
 "completing": 2873,
 "blurred": 2874,
 "trophy": 2875,
 "ker": 2876,
 "thick": 2877,
 "aqua": 2878,
 "nude": 2879,
 "environment": 2880,
 "defender": 2881,
 "mouths": 2882,
 "7": 2883,
 "puppet": 2884,
 "fuzzy": 2885,
 "slacks": 2886,
 "mi@@": 2887,
 "presents": 2888,
 "amid": 2889,
 "prepared": 2890,
 "handed": 2891,
 "pointed": 2892,
 "xylophone": 2893,
 "men@@": 2894,
 "crosscountry": 2895,
 "cotton": 2896,
 "skyline": 2897,
 "squats": 2898,
 "sli@@": 2899,
 "maybe": 2900,
 "level": 2901,
 "cli@@": 2902,
 "able": 2903,
 "barrels": 2904,
 "sculptures": 2905,
 "parent": 2906,
 "sm@@": 2907,
 "supermarket": 2908,
 "confetti": 2909,
 "year": 2910,
 "bra": 2911,
 "beers": 2912,
 "pic@@": 2913,
 "discuss": 2914,
 "crops": 2915,
 "find": 2916,
 "ba@@": 2917,
 "advertisements": 2918,
 "pigeon": 2919,
 "stripe": 2920,
 "foggy": 2921,
 "framed": 2922,
 "blower": 2923,
 "dolls": 2924,
 "squ@@": 2925,
 "bit": 2926,
 "shower": 2927,
 "acting": 2928,
 "rolls": 2929,
 "ins": 2930,
 "sidelines": 2931,
 "vacuum": 2932,
 "cast": 2933,
 "await": 2934,
 "travels": 2935,
 "social": 2936,
 "ging": 2937,
 "rafts": 2938,
 "were": 2939,
 "may": 2940,
 "aring": 2941,
 "speeds": 2942,
 "ways": 2943,
 "husband": 2944,
 "bounds": 2945,
 "watermelons": 2946,
 "leopard": 2947,
 "br@@": 2948,
 "main": 2949,
 "shawl": 2950,
 "par@@": 2951,
 "rollerskates": 2952,
 "nine": 2953,
 "mcdonald": 2954,
 "jenga": 2955,
 "drying": 2956,
 "punching": 2957,
 "snowboards": 2958,
 "logo": 2959,
 "usa": 2960,
 "exercising": 2961,
 "feather": 2962,
 "activities": 2963,
 "meadow": 2964,
 "chin": 2965,
 "cameraman": 2966,
 "au@@": 2967,
 "5@@": 2968,
 "ultimate": 2969,
 "cigarettes": 2970,
 "casting": 2971,
 "peaks": 2972,
 "sters": 2973,
 "sooners": 2974,
 "propped": 2975,
 "bowtie": 2976,
 "checkout": 2977,
 "rolled": 2978,
 "walkers": 2979,
 "devices": 2980,
 "mats": 2981,
 "ky": 2982,
 "damaged": 2983,
 "noses": 2984,
 "expanse": 2985,
 "nearly": 2986,
 "crate": 2987,
 "woven": 2988,
 "any": 2989,
 "roll": 2990,
 "kicked": 2991,
 "nightclub": 2992,
 "snow@@": 2993,
 "ys": 2994,
 "circus": 2995,
 "superman": 2996,
 "off-camera": 2997,
 "excitedly": 2998,
 "microscopes": 2999,
 "connected": 3000,
 "mule": 3001,
 "bib": 3002,
 "fin@@": 3003,
 "clothed": 3004,
 "bulldozer": 3005,
 "pa@@": 3006,
 "spots": 3007,
 "lipstick": 3008,
 ".@@": 3009,
 "tree-lined": 3010,
 "cre@@": 3011,
 "harvesting": 3012,
 "shouting": 3013,
 "deserted": 3014,
 "weapon": 3015,
 "stirring": 3016,
 "raise": 3017,
 "sa@@": 3018,
 "parallel": 3019,
 "ravine": 3020,
 "sundress": 3021,
 "briefcase": 3022,
 "coast": 3023,
 "university": 3024,
 "miniature": 3025,
 "checked": 3026,
 "ir@@": 3027,
 "ver": 3028,
 "liquor": 3029,
 "bla@@": 3030,
 "clap": 3031,
 "la": 3032,
 "bell": 3033,
 "mouse": 3034,
 "gar@@": 3035,
 "canyon": 3036,
 "tly": 3037,
 "lovely": 3038,
 "mittens": 3039,
 "olive": 3040,
 "plank": 3041,
 "texting": 3042,
 "blocking": 3043,
 "gh@@": 3044,
 "bunny": 3045,
 "swan": 3046,
 "arrangement": 3047,
 "lanes": 3048,
 "column": 3049,
 "floors": 3050,
 "rubs": 3051,
 "mou@@": 3052,
 "os": 3053,
 "rimmed": 3054,
 "handbag": 3055,
 "follow": 3056,
 "red-@@": 3057,
 "constructed": 3058,
 "shorter": 3059,
 "glacier": 3060,
 "stair": 3061,
 "af@@": 3062,
 "unloading": 3063,
 "relay": 3064,
 "scaling": 3065,
 "elaborate": 3066,
 "rack": 3067,
 "climbers": 3068,
 "political": 3069,
 "length": 3070,
 "dropping": 3071,
 "pipes": 3072,
 "congregate": 3073,
 "convenience": 3074,
 "oning": 3075,
 "soup": 3076,
 "soars": 3077,
 "cru@@": 3078,
 "deer": 3079,
 "jumpsuits": 3080,
 "zoo": 3081,
 "stri@@": 3082,
 "progress": 3083,
 "goatee": 3084,
 "bodysuit": 3085,
 "ble@@": 3086,
 "pad": 3087,
 "features": 3088,
 "identical": 3089,
 "cable": 3090,
 "slopes": 3091,
 "cho@@": 3092,
 "anvil": 3093,
 "face-@@": 3094,
 "hour": 3095,
 "med": 3096,
 "ure": 3097,
 "weight": 3098,
 "wal@@": 3099,
 "boxers": 3100,
 "overlook": 3101,
 "bones": 3102,
 "badge": 3103,
 "grills": 3104,
 "kil@@": 3105,
 "upright": 3106,
 "system": 3107,
 "raking": 3108,
 "actors": 3109,
 "quad": 3110,
 "crafting": 3111,
 "nurse": 3112,
 "dump": 3113,
 "ms": 3114,
 "stunts": 3115,
 "information": 3116,
 "toe": 3117,
 "ancient": 3118,
 "focus": 3119,
 "ton": 3120,
 "ching": 3121,
 "pitching": 3122,
 "spar@@": 3123,
 "finished": 3124,
 "relaxes": 3125,
 "scooping": 3126,
 "sleep": 3127,
 "hunched": 3128,
 "piles": 3129,
 "terrier": 3130,
 "bottoms": 3131,
 "dro@@": 3132,
 "personnel": 3133,
 "strollers": 3134,
 "ceremonial": 3135,
 "brooms": 3136,
 "cats": 3137,
 "assembled": 3138,
 "mature": 3139,
 "-": 3140,
 "tablecloth": 3141,
 "-looking": 3142,
 "flowery": 3143,
 "handheld": 3144,
 "rusty": 3145,
 "those": 3146,
 "knitting": 3147,
 "snowball": 3148,
 "dots": 3149,
 "completely": 3150,
 "butcher": 3151,
 "expression": 3152,
 "licks": 3153,
 "rails": 3154,
 "av@@": 3155,
 "popcorn": 3156,
 "sprinklers": 3157,
 "feathered": 3158,
 "tips": 3159,
 "legos": 3160,
 "probably": 3161,
 "vo@@": 3162,
 "lower": 3163,
 "ribbons": 3164,
 "tow": 3165,
 "professor": 3166,
 "socializing": 3167,
 "10": 3168,
 "riverbank": 3169,
 "watering": 3170,
 "pushed": 3171,
 "creates": 3172,
 "aiming": 3173,
 "semi": 3174,
 "fixes": 3175,
 "gloved": 3176,
 "shingles": 3177,
 "test": 3178,
 "ski@@": 3179,
 "ser@@": 3180,
 "fo@@": 3181,
 "cash": 3182,
 "ously": 3183,
 "fit": 3184,
 "tic@@": 3185,
 "senior": 3186,
 "flat": 3187,
 "bikinis": 3188,
 "rag": 3189,
 "belly": 3190,
 "keys": 3191,
 "razor": 3192,
 "bronco": 3193,
 "strike": 3194,
 "waterside": 3195,
 "wing": 3196,
 "h": 3197,
 "kiosk": 3198,
 "cardigan": 3199,
 "stars": 3200,
 "spatula": 3201,
 "ear@@": 3202,
 "boogie": 3203,
 "stretched": 3204,
 "portable": 3205,
 "skull": 3206,
 "lime": 3207,
 "crest": 3208,
 "lie": 3209,
 "well-dressed": 3210,
 "words": 3211,
 "san@@": 3212,
 "scissors": 3213,
 "clutching": 3214,
 "muslim": 3215,
 "sunshine": 3216,
 "dragon": 3217,
 "dr@@": 3218,
 "ist": 3219,
 "assisting": 3220,
 "merry-go-round": 3221,
 "tying": 3222,
 "within": 3223,
 "beams": 3224,
 "scattered": 3225,
 "aboard": 3226,
 "armed": 3227,
 "sample": 3228,
 "pillar": 3229,
 "miami": 3230,
 "angle": 3231,
 "stan@@": 3232,
 "heavyset": 3233,
 "cathedral": 3234,
 "wineglasses": 3235,
 "wheelchairs": 3236,
 "mates": 3237,
 "barriers": 3238,
 "coun@@": 3239,
 "two-@@": 3240,
 "rush": 3241,
 "pain": 3242,
 "flo@@": 3243,
 "hearts": 3244,
 "favorite": 3245,
 "badminton": 3246,
 "thing": 3247,
 "ves": 3248,
 "ped": 3249,
 "missing": 3250,
 "res": 3251,
 "crown": 3252,
 "ob@@": 3253,
 "waterskier": 3254,
 "grasping": 3255,
 "tomatoes": 3256,
 "somebody": 3257,
 "swords": 3258,
 "squad": 3259,
 "elevated": 3260,
 "seagulls": 3261,
 "mark": 3262,
 "axe": 3263,
 "gap": 3264,
 "crash": 3265,
 "fol@@": 3266,
 "whistle": 3267,
 "saris": 3268,
 "dessert": 3269,
 "nails": 3270,
 "hook": 3271,
 "flames": 3272,
 "renaissance": 3273,
 "award": 3274,
 "talent": 3275,
 "jewish": 3276,
 "seattle": 3277,
 "evil": 3278,
 "eye@@": 3279,
 "pur@@": 3280,
 "stride": 3281,
 "special": 3282,
 "teddy": 3283,
 "mountaintop": 3284,
 "citizens": 3285,
 "sto@@": 3286,
 "hel@@": 3287,
 "gowns": 3288,
 "rec@@": 3289,
 "skateboarders": 3290,
 "memorial": 3291,
 "saying": 3292,
 "watercraft": 3293,
 "handling": 3294,
 "glider": 3295,
 "struggling": 3296,
 "register": 3297,
 "peacock": 3298,
 "bru@@": 3299,
 "blindfolded": 3300,
 "exhibition": 3301,
 "oar": 3302,
 "por@@": 3303,
 "aid": 3304,
 "your": 3305,
 "char@@": 3306,
 "z": 3307,
 "motorbikes": 3308,
 "aping": 3309,
 "last": 3310,
 "oned": 3311,
 "snaps": 3312,
 "sponsored": 3313,
 "collec@@": 3314,
 "parachuting": 3315,
 "hear": 3316,
 "angels": 3317,
 "instructing": 3318,
 "toilet": 3319,
 "asphalt": 3320,
 "tugging": 3321,
 "rake": 3322,
 "turing": 3323,
 "lean": 3324,
 "cradles": 3325,
 "ie": 3326,
 "des": 3327,
 "installing": 3328,
 "blurry": 3329,
 "unfinished": 3330,
 "st.": 3331,
 "trays": 3332,
 "states": 3333,
 "cola": 3334,
 "parachutes": 3335,
 "fish@@": 3336,
 "clearing": 3337,
 "boss": 3338,
 "massive": 3339,
 "dribbles": 3340,
 "yelling": 3341,
 "blocked": 3342,
 "attendant": 3343,
 "chains": 3344,
 "rowboat": 3345,
 "greenery": 3346,
 "ruins": 3347,
 "poodles": 3348,
 "backstroke": 3349,
 "punk": 3350,
 "magnifying": 3351,
 "ck@@": 3352,
 "bee": 3353,
 "ger@@": 3354,
 "embrace": 3355,
 "fireplace": 3356,
 "til@@": 3357,
 "archway": 3358,
 "clock": 3359,
 "scantily": 3360,
 "huddle": 3361,
 "sses": 3362,
 "competitors": 3363,
 "storm": 3364,
 "dyed": 3365,
 "beginning": 3366,
 "leashes": 3367,
 "film": 3368,
 "chunk": 3369,
 "nicely": 3370,
 "go-cart": 3371,
 "campers": 3372,
 "ry": 3373,
 "plush": 3374,
 "lar": 3375,
 "cap@@": 3376,
 "pper": 3377,
 "backward": 3378,
 "tumbling": 3379,
 "completed": 3380,
 "cityscape": 3381,
 "chained": 3382,
 "gham": 3383,
 "text": 3384,
 "lin@@": 3385,
 "opened": 3386,
 "priest": 3387,
 "chips": 3388,
 "ately": 3389,
 "slicing": 3390,
 "peak": 3391,
 "steers": 3392,
 "pedestrian": 3393,
 "escape": 3394,
 "daylight": 3395,
 "horns": 3396,
 "handles": 3397,
 "singers": 3398,
 "collecting": 3399,
 "towels": 3400,
 "sweatsuit": 3401,
 "tan@@": 3402,
 "ax": 3403,
 "trimming": 3404,
 "cheeks": 3405,
 "bay": 3406,
 "appearing": 3407,
 "tomato": 3408,
 "ats": 3409,
 "apples": 3410,
 "parts": 3411,
 "sailboats": 3412,
 "hero": 3413,
 "forming": 3414,
 "cows": 3415,
 "mothers": 3416,
 "comfortable": 3417,
 "lost": 3418,
 "k-@@": 3419,
 "zed": 3420,
 "hin@@": 3421,
 "combat": 3422,
 "suitcases": 3423,
 "din@@": 3424,
 "ath@@": 3425,
 "chat": 3426,
 "da": 3427,
 "girlfriend": 3428,
 "convention": 3429,
 "artistic": 3430,
 "eyeglasses": 3431,
 "weapons": 3432,
 "fairy": 3433,
 "med@@": 3434,
 "marches": 3435,
 "pauses": 3436,
 "baton": 3437,
 "cal@@": 3438,
 "le-@@": 3439,
 "peach": 3440,
 "foam": 3441,
 "shelves": 3442,
 "community": 3443,
 "perched": 3444,
 "message": 3445,
 "herding": 3446,
 "ti": 3447,
 "suburban": 3448,
 "inspect": 3449,
 "earrings": 3450,
 "robot": 3451,
 "cloths": 3452,
 "sweatshirts": 3453,
 "cargo": 3454,
 "contents": 3455,
 "white-haired": 3456,
 "snowman": 3457,
 "emerges": 3458,
 "wor@@": 3459,
 "attentively": 3460,
 "gen@@": 3461,
 "concentrates": 3462,
 "soft": 3463,
 "whole": 3464,
 "carried": 3465,
 "passerby": 3466,
 "stretch": 3467,
 "vocalist": 3468,
 "splash": 3469,
 "least": 3470,
 "lets": 3471,
 "shines": 3472,
 "haired": 3473,
 "clothesline": 3474,
 "banana": 3475,
 "rock@@": 3476,
 "fu@@": 3477,
 "jack": 3478,
 "mustard": 3479,
 "shack": 3480,
 "win@@": 3481,
 "lowered": 3482,
 "mannequin": 3483,
 "farm@@": 3484,
 "goats": 3485,
 "masked": 3486,
 "pie": 3487,
 "s-@@": 3488,
 "baked": 3489,
 "wakeboard": 3490,
 "posts": 3491,
 "ence": 3492,
 "bounding": 3493,
 "shoeshine": 3494,
 "challenge": 3495,
 "spo@@": 3496,
 "starts": 3497,
 "passed": 3498,
 "snap": 3499,
 "recreational": 3500,
 "conditions": 3501,
 "fort": 3502,
 "dilapidated": 3503,
 "headset": 3504,
 "run-down": 3505,
 "latin": 3506,
 "carved": 3507,
 "ra@@": 3508,
 "cri@@": 3509,
 "fan@@": 3510,
 "waitress": 3511,
 "show@@": 3512,
 "balanced": 3513,
 "roadwork": 3514,
 "sharp": 3515,
 "bakery": 3516,
 "barbecuing": 3517,
 "sail": 3518,
 "split": 3519,
 "va@@": 3520,
 "equestrian": 3521,
 "coolers": 3522,
 "brow": 3523,
 "bookshelf": 3524,
 "hand-@@": 3525,
 "elephants": 3526,
 "pride": 3527,
 "antly": 3528,
 "spongebob": 3529,
 "spike": 3530,
 "businessman": 3531,
 "storefronts": 3532,
 "bites": 3533,
 "photographing": 3534,
 "stylish": 3535,
 "mops": 3536,
 "sen@@": 3537,
 "stacks": 3538,
 "bly": 3539,
 "apparatus": 3540,
 "available": 3541,
 "harp": 3542,
 "bri@@": 3543,
 "makeshift": 3544,
 "dunking": 3545,
 "carousel": 3546,
 "exploring": 3547,
 "curve": 3548,
 "ve": 3549,
 "japan": 3550,
 "tru@@": 3551,
 "flowing": 3552,
 "knee-high": 3553,
 "competitive": 3554,
 "backlit": 3555,
 "minivan": 3556,
 "barren": 3557,
 "hur@@": 3558,
 "leaned": 3559,
 "applies": 3560,
 "ak": 3561,
 "carve": 3562,
 "excitement": 3563,
 "the@@": 3564,
 "designer": 3565,
 "holes": 3566,
 "positioned": 3567,
 "strap": 3568,
 "pro": 3569,
 "ju@@": 3570,
 "husky": 3571,
 "mcdonalds": 3572,
 "unknown": 3573,
 "perhaps": 3574,
 "loo@@": 3575,
 "ki": 3576,
 "6@@": 3577,
 "tribe": 3578,
 "themed": 3579,
 "mattress": 3580,
 "assistant": 3581,
 "vertical": 3582,
 "tongs": 3583,
 "ining": 3584,
 "bushy": 3585,
 "cookies": 3586,
 "barking": 3587,
 "angry": 3588,
 "sailor": 3589,
 "merchant": 3590,
 "directs": 3591,
 "interviewed": 3592,
 "champagne": 3593,
 "winding": 3594,
 "workmen": 3595,
 "fills": 3596,
 "sweaters": 3597,
 "vegetation": 3598,
 "ai@@": 3599,
 "kimonos": 3600,
 "dec@@": 3601,
 "tossed": 3602,
 "pedal": 3603,
 "sco@@": 3604,
 "dig": 3605,
 "lasso": 3606,
 "snowcapped": 3607,
 "lingerie": 3608,
 "dotted": 3609,
 "x": 3610,
 "ingly": 3611,
 "surgeons": 3612,
 "floaties": 3613,
 "multicolor": 3614,
 "mid@@": 3615,
 "symbol": 3616,
 "armor": 3617,
 "opponents": 3618,
 "confused": 3619,
 "zing": 3620,
 "season": 3621,
 "sheer": 3622,
 "welcome": 3623,
 "want": 3624,
 "ap@@": 3625,
 "island": 3626,
 "scout": 3627,
 "nike": 3628,
 "searching": 3629,
 "posters": 3630,
 "watermelon": 3631,
 "gum": 3632,
 "feathers": 3633,
 "cockpit": 3634,
 "canopy": 3635,
 "claus": 3636,
 "onal": 3637,
 "antique": 3638,
 "clarinet": 3639,
 "dominoes": 3640,
 "struggles": 3641,
 "arrive": 3642,
 "graffitied": 3643,
 "campsite": 3644,
 "snowboarders": 3645,
 "breath": 3646,
 "major": 3647,
 "shar@@": 3648,
 "port": 3649,
 "tunic": 3650,
 "ups": 3651,
 "obama": 3652,
 "curved": 3653,
 "disney": 3654,
 "observers": 3655,
 "besides": 3656,
 "bal@@": 3657,
 "sacks": 3658,
 "seesaw": 3659,
 "interact": 3660,
 "drivers": 3661,
 "cooked": 3662,
 "flaming": 3663,
 "cartwheel": 3664,
 "frog": 3665,
 "pacifier": 3666,
 "utility": 3667,
 "given": 3668,
 "dropped": 3669,
 "decorating": 3670,
 "fishermen": 3671,
 "lantern": 3672,
 "et": 3673,
 "returns": 3674,
 "torches": 3675,
 "sh": 3676,
 "zer": 3677,
 "crowns": 3678,
 "huddled": 3679,
 "bundled": 3680,
 "chil@@": 3681,
 "ske@@": 3682,
 "jog": 3683,
 "baseman": 3684,
 "rounding": 3685,
 "ford": 3686,
 "padded": 3687,
 "decor@@": 3688,
 "offering": 3689,
 "amish": 3690,
 "shady": 3691,
 "comforting": 3692,
 "metro": 3693,
 "mate": 3694,
 "descending": 3695,
 "smooth": 3696,
 "terminal": 3697,
 "expressions": 3698,
 "high-@@": 3699,
 "cattle": 3700,
 "pinned": 3701,
 "digs": 3702,
 "gliding": 3703,
 "drilling": 3704,
 "e-@@": 3705,
 "cowgirl": 3706,
 "button-up": 3707,
 "sheets": 3708,
 "tor@@": 3709,
 "wiping": 3710,
 "kites": 3711,
 "poking": 3712,
 "rollerskaters": 3713,
 "includes": 3714,
 "tuxedo": 3715,
 "sound": 3716,
 "ipod": 3717,
 "caricature": 3718,
 "cooler": 3719,
 "tiara": 3720,
 "reclines": 3721,
 "partying": 3722,
 "braided": 3723,
 "pinstriped": 3724,
 "crazy": 3725,
 "javelin": 3726,
 "grown": 3727,
 "hairstyle": 3728,
 "operation": 3729,
 "persons": 3730,
 "americans": 3731,
 "chan@@": 3732,
 "scales": 3733,
 "breaks": 3734,
 "ban@@": 3735,
 "theme": 3736,
 "rubble": 3737,
 "eagerly": 3738,
 "pub": 3739,
 "backhoe": 3740,
 "occupied": 3741,
 "cro@@": 3742,
 "ascending": 3743,
 "hooping": 3744,
 "crawling": 3745,
 "historic": 3746,
 "windbreaker": 3747,
 "donkeys": 3748,
 "varying": 3749,
 "formed": 3750,
 "petals": 3751,
 "served": 3752,
 "sister": 3753,
 "ets": 3754,
 "hu@@": 3755,
 "cleaned": 3756,
 "octopus": 3757,
 "buoy": 3758,
 "caution": 3759,
 "smo@@": 3760,
 "unpacking": 3761,
 "arid": 3762,
 "ved": 3763,
 "straining": 3764,
 "enthusiastically": 3765,
 "mac": 3766,
 "vel@@": 3767,
 "mickey": 3768,
 "grins": 3769,
 "polish": 3770,
 "ly-@@": 3771,
 "paintbrush": 3772,
 "ping-pong": 3773,
 "wipes": 3774,
 "greeting": 3775,
 "ish": 3776,
 "buggy": 3777,
 "selecting": 3778,
 "frustrated": 3779,
 "dding": 3780,
 "mil@@": 3781,
 "steam": 3782,
 "pped": 3783,
 "unseen": 3784,
 "cafeteria": 3785,
 "cubicle": 3786,
 "slab": 3787,
 "diners": 3788,
 "dges": 3789,
 "troops": 3790,
 "sight": 3791,
 "clu@@": 3792,
 "muzzles": 3793,
 "promoting": 3794,
 "ramps": 3795,
 "vegas": 3796,
 "scottish": 3797,
 "union": 3798,
 "preparation": 3799,
 "spandex": 3800,
 "owner": 3801,
 "hor@@": 3802,
 "media": 3803,
 "fac@@": 3804,
 "technique": 3805,
 "starbucks": 3806,
 "speakers": 3807,
 "coke": 3808,
 "wrapping": 3809,
 "fashionable": 3810,
 "curious": 3811,
 "aerial": 3812,
 "paintings": 3813,
 "attraction": 3814,
 "seeds": 3815,
 "camper": 3816,
 "owners": 3817,
 "yed": 3818,
 "sausages": 3819,
 "lou@@": 3820,
 "air-@@": 3821,
 "trav@@": 3822,
 "ant": 3823,
 "rabbits": 3824,
 "strawberry": 3825,
 "fore@@": 3826,
 "ists": 3827,
 "beards": 3828,
 "buses": 3829,
 "rabbit": 3830,
 "basketballs": 3831,
 "boulders": 3832,
 "south": 3833,
 "pirates": 3834,
 "note": 3835,
 "turtle": 3836,
 "liberty": 3837,
 "real": 3838,
 "speedo": 3839,
 "jazz": 3840,
 "rocking": 3841,
 "ot@@": 3842,
 "prizes": 3843,
 "dramatically": 3844,
 "wicker": 3845,
 "poised": 3846,
 "casts": 3847,
 "grand@@": 3848,
 "whi@@": 3849,
 "accepting": 3850,
 "bran@@": 3851,
 "patrol": 3852,
 "salad": 3853,
 "avoid": 3854,
 "likely": 3855,
 "hol@@": 3856,
 "yamaha": 3857,
 "chiseling": 3858,
 "sculptor": 3859,
 "exposed": 3860,
 "ank@@": 3861,
 "scared": 3862,
 "landed": 3863,
 "alcohol": 3864,
 "bronze": 3865,
 "ff@@": 3866,
 "occurring": 3867,
 "controls": 3868,
 "pig": 3869,
 "tightly": 3870,
 "rollerblader": 3871,
 "chews": 3872,
 "suv": 3873,
 "pregnant": 3874,
 "skimpy": 3875,
 "dolphin": 3876,
 "gras@@": 3877,
 "jewelery": 3878,
 "kitten": 3879,
 "file": 3880,
 "cartoon": 3881,
 "incoming": 3882,
 "tap": 3883,
 "guitarists": 3884,
 "write": 3885,
 "plucking": 3886,
 "sculpting": 3887,
 "dol@@": 3888,
 "tosses": 3889,
 "seaweed": 3890,
 "stalks": 3891,
 "padding": 3892,
 "ig@@": 3893,
 "solo": 3894,
 "slender": 3895,
 "jar": 3896,
 "overcoat": 3897,
 "twirling": 3898,
 "coconuts": 3899,
 "ther": 3900,
 "sunhat": 3901,
 "swe@@": 3902,
 "ong": 3903,
 "double": 3904,
 "ka@@": 3905,
 "ars": 3906,
 "puffy": 3907,
 "word": 3908,
 "retrieving": 3909,
 "sunbathers": 3910,
 "affe@@": 3911,
 "defenders": 3912,
 "roping": 3913,
 "begging": 3914,
 "sumo": 3915,
 "cabin": 3916,
 "mesh": 3917,
 "someones": 3918,
 "sprinting": 3919,
 "bra@@": 3920,
 "winning": 3921,
 "contemplating": 3922,
 "basement": 3923,
 "guarding": 3924,
 "crab": 3925,
 "strikes": 3926,
 "tions": 3927,
 "inline": 3928,
 "scu@@": 3929,
 "photography": 3930,
 "freshly": 3931,
 "bears": 3932,
 "long@@": 3933,
 "hips": 3934,
 "emerging": 3935,
 "halter": 3936,
 "ction": 3937,
 "early": 3938,
 "dering": 3939,
 "brimmed": 3940,
 "oxen": 3941,
 "potted": 3942,
 "ladders": 3943,
 "twister": 3944,
 "yellow-@@": 3945,
 "quaint": 3946,
 "tagged": 3947,
 "fed": 3948,
 "exits": 3949,
 "cookie": 3950,
 "despite": 3951,
 "pee": 3952,
 "ics": 3953,
 "prayer": 3954,
 "retail": 3955,
 "pedd@@": 3956,
 "pat@@": 3957,
 "sme@@": 3958,
 "statues": 3959,
 "think": 3960,
 "dunk": 3961,
 "letters": 3962,
 "id@@": 3963,
 "ballerinas": 3964,
 "hi@@": 3965,
 "open-air": 3966,
 "motorboat": 3967,
 "topic": 3968,
 "shave": 3969,
 "galloping": 3970,
 "meas@@": 3971,
 "dri@@": 3972,
 "typical": 3973,
 "weeds": 3974,
 "ssing": 3975,
 "kno@@": 3976,
 "ges": 3977,
 "lip": 3978,
 "receives": 3979,
 "seashore": 3980,
 "stockings": 3981,
 "key": 3982,
 "zes": 3983,
 "gie": 3984,
 "civil": 3985,
 "hilly": 3986,
 "returning": 3987,
 "down@@": 3988,
 "hopscotch": 3989,
 "frames": 3990,
 "mountainside": 3991,
 "re": 3992,
 "sucking": 3993,
 "delicious": 3994,
 "piggyback": 3995,
 "blue-green": 3996,
 "cemetery": 3997,
 "sorts": 3998,
 "tor": 3999,
 "cinder": 4000,
 "cs": 4001,
 "ki@@": 4002,
 "playpen": 4003,
 "der@@": 4004,
 "hung": 4005,
 "created": 4006,
 "firing": 4007,
 "kes": 4008,
 "violinist": 4009,
 "maneuver": 4010,
 "intense": 4011,
 "such": 4012,
 "wetsuits": 4013,
 "hawk": 4014,
 "ped@@": 4015,
 "stro@@": 4016,
 "hikes": 4017,
 "mind": 4018,
 "era": 4019,
 "cruise": 4020,
 "mustached": 4021,
 "rear": 4022,
 "lock": 4023,
 "lifeguards": 4024,
 "fourth": 4025,
 "lid": 4026,
 "wigs": 4027,
 "princess": 4028,
 "tackles": 4029,
 "scratching": 4030,
 "mailbox": 4031,
 "leafless": 4032,
 "unicef": 4033,
 "chickens": 4034,
 "storage": 4035,
 "pack@@": 4036,
 "litter": 4037,
 "strip": 4038,
 "ion": 4039,
 "amp@@": 4040,
 "forces": 4041,
 "don": 4042,
 "breaking": 4043,
 "gay": 4044,
 "paws": 4045,
 "gated": 4046,
 "band@@": 4047,
 "monster": 4048,
 "soil": 4049,
 "else": 4050,
 "actively": 4051,
 "thinking": 4052,
 "quick": 4053,
 "ukulele": 4054,
 "collection": 4055,
 "helmeted": 4056,
 "fitness": 4057,
 "shields": 4058,
 "mermaid": 4059,
 "ack": 4060,
 "wind@@": 4061,
 "straps": 4062,
 "pictured": 4063,
 "sloping": 4064,
 "taxis": 4065,
 "disk": 4066,
 "enforcement": 4067,
 "inflated": 4068,
 "law": 4069,
 "tuning": 4070,
 "orders": 4071,
 "spikes": 4072,
 "runway": 4073,
 "sw@@": 4074,
 "chubby": 4075,
 "je@@": 4076,
 "gymnastic": 4077,
 "ll@@": 4078,
 "seas@@": 4079,
 "metallic": 4080,
 "organizing": 4081,
 "floppy": 4082,
 "tip": 4083,
 "pickup": 4084,
 "q": 4085,
 "bridal": 4086,
 "temporary": 4087,
 "ery": 4088,
 "apparel": 4089,
 "dunes": 4090,
 "sons": 4091,
 "yo-yo": 4092,
 "unpaved": 4093,
 "pitchers": 4094,
 "whispering": 4095,
 "rid@@": 4096,
 "charcoal": 4097,
 "crayon": 4098,
 "overturned": 4099,
 "san": 4100,
 "snowing": 4101,
 "receive": 4102,
 "messenger": 4103,
 "keeping": 4104,
 "piled": 4105,
 "cupcake": 4106,
 "stay": 4107,
 "consid@@": 4108,
 "slam": 4109,
 "professionals": 4110,
 "pop": 4111,
 "deere": 4112,
 "marks": 4113,
 "studies": 4114,
 "fle@@": 4115,
 "goers": 4116,
 "boston": 4117,
 "shing": 4118,
 "spin": 4119,
 "swampy": 4120,
 "black-@@": 4121,
 "prints": 4122,
 "old-fashioned": 4123,
 "ten": 4124,
 "cables": 4125,
 "picker": 4126,
 "em": 4127,
 "technology": 4128,
 "electronics": 4129,
 "thy": 4130,
 "extended": 4131,
 "layers": 4132,
 "supervi@@": 4133,
 "joggers": 4134,
 "cing": 4135,
 "hauling": 4136,
 "fighter": 4137,
 "seagull": 4138,
 "henna": 4139,
 "stirs": 4140,
 "slot": 4141,
 "artificial": 4142,
 "kers": 4143,
 "pressure": 4144,
 "stationary": 4145,
 "tasting": 4146,
 "dy": 4147,
 "participates": 4148,
 "lonely": 4149,
 "cupcakes": 4150,
 "sea@@": 4151,
 "extremely": 4152,
 "force": 4153,
 "headscarves": 4154,
 "mascara": 4155,
 "tro@@": 4156,
 "cel@@": 4157,
 "rac@@": 4158,
 "torn": 4159,
 "tattered": 4160,
 "para@@": 4161,
 "fri@@": 4162,
 "drainage": 4163,
 "megaphone": 4164,
 "swimwear": 4165,
 "oversized": 4166,
 "ren@@": 4167,
 "foot@@": 4168,
 "craftsman": 4169,
 "ators": 4170,
 "beat": 4171,
 "rode": 4172,
 "pokes": 4173,
 "flatbed": 4174,
 "plan@@": 4175,
 "villagers": 4176,
 "pri@@": 4177,
 "lev@@": 4178,
 "bookbag": 4179,
 "chinatown": 4180,
 "beyond": 4181,
 "sun@@": 4182,
 "warning": 4183,
 "reddish": 4184,
 "dis@@": 4185,
 "pancake": 4186,
 "sheepdog": 4187,
 "back@@": 4188,
 "kiddie": 4189,
 "surround": 4190,
 "postal": 4191,
 "operated": 4192,
 "drops": 4193,
 "shapes": 4194,
 "holiday": 4195,
 "coca": 4196,
 "kayakers": 4197,
 "trombone": 4198,
 "remote": 4199,
 "pant": 4200,
 "wraps": 4201,
 "cause": 4202,
 "weird": 4203,
 "puzzle": 4204,
 "kilts": 4205,
 "automobile": 4206,
 "dribbling": 4207,
 "foundation": 4208,
 "defensive": 4209,
 "ley": 4210,
 "brochure": 4211,
 "seniors": 4212,
 "squares": 4213,
 "powder": 4214,
 "decide": 4215,
 "one-@@": 4216,
 "safe": 4217,
 "descend": 4218,
 "kayaker": 4219,
 "floored": 4220,
 "via": 4221,
 "aircraft": 4222,
 "waring": 4223,
 "bl@@": 4224,
 "overhang": 4225,
 "dge": 4226,
 "closer": 4227,
 "propane": 4228,
 "streetlight": 4229,
 "readying": 4230,
 "tickets": 4231,
 "wo@@": 4232,
 "kitchenaid": 4233,
 "fre@@": 4234,
 "pastries": 4235,
 "flour": 4236,
 "plowing": 4237,
 "projected": 4238,
 "came": 4239,
 "stacking": 4240,
 "viewer": 4241,
 "da@@": 4242,
 "build": 4243,
 "pla@@": 4244,
 "graphic": 4245,
 "weathered": 4246,
 "wool": 4247,
 "zebra": 4248,
 "tightrope": 4249,
 "footbridge": 4250,
 "competes": 4251,
 "ci@@": 4252,
 "daughters": 4253,
 "unidentified": 4254,
 "ll": 4255,
 "substance": 4256,
 "washed": 4257,
 "er-@@": 4258,
 "earmuffs": 4259,
 "sandal": 4260,
 "helped": 4261,
 "western": 4262,
 "aired": 4263,
 "over-sized": 4264,
 "button-down": 4265,
 "crutches": 4266,
 "parasol": 4267,
 "toast": 4268,
 "crib": 4269,
 "washington": 4270,
 "golfer": 4271,
 "ound": 4272,
 "texts": 4273,
 "mas@@": 4274,
 "glo@@": 4275,
 "once": 4276,
 "spectate": 4277,
 "spear": 4278,
 "milk": 4279,
 "firetrucks": 4280,
 "em@@": 4281,
 "burgers": 4282,
 "tion@@": 4283,
 "cords": 4284,
 "bungee": 4285,
 "pillars": 4286,
 "balconies": 4287,
 "trims": 4288,
 "youths": 4289,
 "lei": 4290,
 "ridding": 4291,
 "volkswagen": 4292,
 "directly": 4293,
 "africa": 4294,
 "mul@@": 4295,
 "used": 4296,
 "weighing": 4297,
 "similarly": 4298,
 "sniffs": 4299,
 "engage": 4300,
 "remo@@": 4301,
 "solitary": 4302,
 "twelve": 4303,
 "smoothing": 4304,
 "impressive": 4305,
 "oklahoma": 4306,
 "vast": 4307,
 "coveralls": 4308,
 "steaks": 4309,
 "panel": 4310,
 "ref": 4311,
 "dozens": 4312,
 "taller": 4313,
 "terrace": 4314,
 "snorkel": 4315,
 "convertible": 4316,
 "ken@@": 4317,
 "mechanic": 4318,
 "communic@@": 4319,
 "videotaping": 4320,
 "exciting": 4321,
 "flea": 4322,
 "sub@@": 4323,
 "possession": 4324,
 "eatery": 4325,
 "0": 4326,
 "ite": 4327,
 "str@@": 4328,
 "peeks": 4329,
 "communicating": 4330,
 "shake": 4331,
 "ged": 4332,
 "sees": 4333,
 "stocking": 4334,
 "ture": 4335,
 "submerged": 4336,
 "shoots": 4337,
 "bookstore": 4338,
 "passionately": 4339,
 "taste": 4340,
 "eling": 4341,
 "mat@@": 4342,
 "stairwell": 4343,
 "chip": 4344,
 "scre@@": 4345,
 "carpeted": 4346,
 "wheeler": 4347,
 "alike": 4348,
 "tram": 4349,
 "removing": 4350,
 "scrap": 4351,
 "organ": 4352,
 "play@@": 4353,
 "currently": 4354,
 "purchasing": 4355,
 "markings": 4356,
 "coca-cola": 4357,
 "noodles": 4358,
 "piercing": 4359,
 "mechanical": 4360,
 "saddle": 4361,
 "slowly": 4362,
 "0s": 4363,
 "celebrates": 4364,
 "mb@@": 4365,
 "loose": 4366,
 "sip": 4367,
 "hidden": 4368,
 "wades": 4369,
 "constructing": 4370,
 "headbands": 4371,
 "weave": 4372,
 "instructor": 4373,
 "ace": 4374,
 "soldering": 4375,
 "stools": 4376,
 "entertainer": 4377,
 "poverty": 4378,
 "tiles": 4379,
 "boo@@": 4380,
 "fine": 4381,
 "structures": 4382,
 "ning": 4383,
 "county": 4384,
 "boarder": 4385,
 "scoop": 4386,
 "sleeve": 4387,
 "bowler": 4388,
 "arabic": 4389,
 "surroundings": 4390,
 "ka": 4391,
 "slices": 4392,
 "sel@@": 4393,
 "youngsters": 4394,
 "roses": 4395,
 "gold-@@": 4396,
 "dolly": 4397,
 "tails": 4398,
 "powered": 4399,
 "peeling": 4400,
 "fer@@": 4401,
 "bringing": 4402,
 "high-fives": 4403,
 "siding": 4404,
 "graduation": 4405,
 "mor@@": 4406,
 "asking": 4407,
 "adorable": 4408,
 "drop": 4409,
 "gre@@": 4410,
 "fetching": 4411,
 "calling": 4412,
 "fluorescent": 4413,
 "sk@@": 4414,
 "banging": 4415,
 "know": 4416,
 "pretending": 4417,
 "except": 4418,
 "ul@@": 4419,
 "shit": 4420,
 "thought": 4421,
 "trained": 4422,
 "taught": 4423,
 "rounds": 4424,
 "comb": 4425,
 "areas": 4426,
 "drag": 4427,
 "ving": 4428,
 "ber@@": 4429,
 "workbench": 4430,
 "railway": 4431,
 "bracelet": 4432,
 "siting": 4433,
 "sashes": 4434,
 "ele@@": 4435,
 "vacation": 4436,
 "slip": 4437,
 "known": 4438,
 "demonstrating": 4439,
 "less": 4440,
 "spiked": 4441,
 "scale": 4442,
 "snake": 4443,
 "sweaty": 4444,
 "bathrobe": 4445,
 "roadway": 4446,
 "ters": 4447,
 "lemons": 4448,
 "driven": 4449,
 "participants": 4450,
 "packing": 4451,
 "bro@@": 4452,
 "pies": 4453,
 "sunrise": 4454,
 "sur@@": 4455,
 "best": 4456,
 "pi@@": 4457,
 "steer": 4458,
 "-covered": 4459,
 "solar": 4460,
 "ddles": 4461,
 "chart": 4462,
 "pairs": 4463,
 "navigating": 4464,
 "tw@@": 4465,
 "ritual": 4466,
 "partly": 4467,
 "planes": 4468,
 "crouch": 4469,
 "brick-paved": 4470,
 "trai@@": 4471,
 "di": 4472,
 "leaf@@": 4473,
 "she@@": 4474,
 "ward": 4475,
 "diverse": 4476,
 "staying": 4477,
 "healthcare": 4478,
 "twigs": 4479,
 "metropolitan": 4480,
 "desolate": 4481,
 "lakers": 4482,
 "tar@@": 4483,
 "addresses": 4484,
 "scope": 4485,
 "spreads": 4486,
 "blue-@@": 4487,
 "jogger": 4488,
 "bouncer": 4489,
 "ght@@": 4490,
 "formations": 4491,
 "awning": 4492,
 "platter": 4493,
 "briefs": 4494,
 "braces": 4495,
 "ssed": 4496,
 "unison": 4497,
 "coverings": 4498,
 "enclosure": 4499,
 "samurai": 4500,
 "crow@@": 4501,
 "handful": 4502,
 "tasty": 4503,
 "sands": 4504,
 "prevent": 4505,
 "organized": 4506,
 "lic@@": 4507,
 "spic@@": 4508,
 "demonstrates": 4509,
 "far@@": 4510,
 "nor@@": 4511,
 "descends": 4512,
 "ol": 4513,
 "dunks": 4514,
 "advantage": 4515,
 "salmon": 4516,
 "turf": 4517,
 "referees": 4518,
 "curling": 4519,
 "services": 4520,
 "poker": 4521,
 "safely": 4522,
 "spits": 4523,
 "commuters": 4524,
 "final": 4525,
 "jars": 4526,
 "track@@": 4527,
 "dressing": 4528,
 "protester": 4529,
 "dar@@": 4530,
 "ga@@": 4531,
 "tambourine": 4532,
 "fur@@": 4533,
 "scr@@": 4534,
 "ung": 4535,
 "sprinkling": 4536,
 "pulley": 4537,
 "cream@@": 4538,
 "playhouse": 4539,
 "skeleton": 4540,
 "gy": 4541,
 "culture": 4542,
 "colum@@": 4543,
 "colon@@": 4544,
 "al-@@": 4545,
 "zip": 4546,
 "vacant": 4547,
 "contin@@": 4548,
 "cl@@": 4549,
 "defends": 4550,
 "paneled": 4551,
 "tics": 4552,
 "outfielder": 4553,
 "beats": 4554,
 "ams": 4555,
 "slu@@": 4556,
 "recliner": 4557,
 "streaks": 4558,
 "tra@@": 4559,
 "lec@@": 4560,
 "vigorously": 4561,
 "shielding": 4562,
 "speci@@": 4563,
 "focuses": 4564,
 "od": 4565,
 "astronaut": 4566,
 "schoolgirl": 4567,
 "graying": 4568,
 "black@@": 4569,
 "ashore": 4570,
 "beans": 4571,
 "livestock": 4572,
 "agility": 4573,
 "tee-shirt": 4574,
 "berry": 4575,
 "toilets": 4576,
 "moved": 4577,
 "enthusiasm": 4578,
 "rises": 4579,
 "expensive": 4580,
 "30": 4581,
 "ruler": 4582,
 "weigh@@": 4583,
 "fortune": 4584,
 "some@@": 4585,
 "mas": 4586,
 "zombies": 4587,
 "maple": 4588,
 "shoo@@": 4589,
 "blonds": 4590,
 "pace": 4591,
 "meter": 4592,
 "interested": 4593,
 "wed": 4594,
 "takeout": 4595,
 "kissed": 4596,
 "ly@@": 4597,
 "study": 4598,
 "jug": 4599,
 "poncho": 4600,
 "shots": 4601,
 "8@@": 4602,
 "tanned": 4603,
 "phones": 4604,
 "removed": 4605,
 "mets": 4606,
 "hazard": 4607,
 "tex@@": 4608,
 "corral": 4609,
 "peaceful": 4610,
 "paddlers": 4611,
 "lottery": 4612,
 "korean": 4613,
 "paving": 4614,
 "overpass": 4615,
 "geisha": 4616,
 "bordering": 4617,
 "baker": 4618,
 "offers": 4619,
 "sexy": 4620,
 "ash@@": 4621,
 "ma": 4622,
 "canister": 4623,
 "green-@@": 4624,
 "ach@@": 4625,
 "surfboards": 4626,
 "refreshing": 4627,
 "hate": 4628,
 "stony": 4629,
 "hairnet": 4630,
 "related": 4631,
 "festiv@@": 4632,
 "brazil": 4633,
 "pause": 4634,
 "rods": 4635,
 "ang@@": 4636,
 "barricades": 4637,
 "soon": 4638,
 "dentist": 4639,
 "mock": 4640,
 "enter": 4641,
 "han@@": 4642,
 "in-@@": 4643,
 "boating": 4644,
 "amazing": 4645,
 "plo@@": 4646,
 "towed": 4647,
 "pierced": 4648,
 "middle-age": 4649,
 "blown": 4650,
 "snows": 4651,
 "tricycles": 4652,
 "decals": 4653,
 "awnings": 4654,
 "tethered": 4655,
 "spir@@": 4656,
 "pon@@": 4657,
 "hula-hoop": 4658,
 "fingernail": 4659,
 "rags": 4660,
 "clams": 4661,
 "tells": 4662,
 "spiral": 4663,
 "arranged": 4664,
 "took": 4665,
 "two-piece": 4666,
 "rappelling": 4667,
 "observed": 4668,
 "sti@@": 4669,
 "auto@@": 4670,
 "grid": 4671,
 "turbans": 4672,
 "horse-drawn": 4673,
 "volunteers": 4674,
 "tar": 4675,
 "positions": 4676,
 "monks": 4677,
 "procession": 4678,
 "umb@@": 4679,
 "enclosed": 4680,
 "hollister": 4681,
 "streams": 4682,
 "butt": 4683,
 "hea@@": 4684,
 "doo": 4685,
 "cross@@": 4686,
 "grou@@": 4687,
 "distorted": 4688,
 "-down": 4689,
 "transporting": 4690,
 "waking": 4691,
 "presses": 4692,
 "dojo": 4693,
 "toyota": 4694,
 "arrival": 4695,
 "role": 4696,
 "neu@@": 4697,
 "bre@@": 4698,
 "lives": 4699,
 "sweep": 4700,
 "sprinkled": 4701,
 "kicker": 4702,
 "pouting": 4703,
 "fist": 4704,
 "ities": 4705,
 "janitor": 4706,
 "stroke": 4707,
 "math": 4708,
 "blow-up": 4709,
 "accompanies": 4710,
 "pleasant": 4711,
 "free@@": 4712,
 "proudly": 4713,
 "barbie": 4714,
 "pointy": 4715,
 "wrong": 4716,
 "cour@@": 4717,
 "california": 4718,
 "wonder": 4719,
 "garment": 4720,
 "har@@": 4721,
 "four-wheeler": 4722,
 "waited": 4723,
 "potatoes": 4724,
 "earring": 4725,
 "flashlight": 4726,
 "ohio": 4727,
 "tures": 4728,
 "interior": 4729,
 "acts": 4730,
 "representing": 4731,
 "trough": 4732,
 "gardens": 4733,
 "sombrero": 4734,
 "hedge": 4735,
 "mariachi": 4736,
 "beautifully": 4737,
 "lemon": 4738,
 "mine": 4739,
 "dishwasher": 4740,
 "mosaic": 4741,
 "hamburger": 4742,
 "reporter": 4743,
 "smi@@": 4744,
 "mini-@@": 4745,
 "veteran": 4746,
 "ult": 4747,
 "celebr@@": 4748,
 "conce@@": 4749,
 "wards": 4750,
 "notice": 4751,
 "approximately": 4752,
 "tuba": 4753,
 "cut-out": 4754,
 "tin@@": 4755,
 "locked": 4756,
 "ail": 4757,
 "page": 4758,
 "provi@@": 4759,
 "professionally": 4760,
 "director": 4761,
 "responding": 4762,
 "mixed": 4763,
 "pitched": 4764,
 "fingertips": 4765,
 "trouble": 4766,
 "tum@@": 4767,
 "tank-top": 4768,
 "patriotic": 4769,
 "roller-skating": 4770,
 "lounges": 4771,
 "elevator": 4772,
 "berlin": 4773,
 "solider": 4774,
 "captured": 4775,
 "fiel@@": 4776,
 "fleece": 4777,
 "views": 4778,
 "skillfully": 4779,
 "corridor": 4780,
 "flotation": 4781,
 "fenced-in": 4782,
 "col@@": 4783,
 "years": 4784,
 "vivid": 4785,
 "explores": 4786,
 "grimacing": 4787,
 "adjust": 4788,
 "pleas@@": 4789,
 "interview": 4790,
 "medium-sized": 4791,
 "bir@@": 4792,
 "digger": 4793,
 "pitches": 4794,
 "coo@@": 4795,
 "miniskirt": 4796,
 "anti@@": 4797,
 "thers": 4798,
 "twirls": 4799,
 "yawning": 4800,
 "cons@@": 4801,
 "re-@@": 4802,
 "24": 4803,
 "utensils": 4804,
 "aches": 4805,
 "period": 4806,
 "scienti@@": 4807,
 "kick@@": 4808,
 "organi@@": 4809,
 "families": 4810,
 "approach": 4811,
 "jects": 4812,
 "walker": 4813,
 "hair@@": 4814,
 "walkie": 4815,
 "corn@@": 4816,
 "talkie": 4817,
 "winded": 4818,
 "proce@@": 4819,
 "mma": 4820,
 "aver": 4821,
 "cle@@": 4822,
 "kneel": 4823,
 "donuts": 4824,
 "landmark": 4825,
 "vice": 4826,
 "sin@@": 4827,
 "layered": 4828,
 "forrest": 4829,
 "ladle": 4830,
 "dy@@": 4831,
 "nintendo": 4832,
 "granddaughter": 4833,
 "save": 4834,
 "side@@": 4835,
 "attaches": 4836,
 "extends": 4837,
 "ends": 4838,
 "white@@": 4839,
 "suds": 4840,
 "airline": 4841,
 "careful": 4842,
 "selection": 4843,
 "partner": 4844,
 "sol@@": 4845,
 "gi": 4846,
 "launching": 4847,
 "sparks": 4848,
 "keyboards": 4849,
 "gyro": 4850,
 "va": 4851,
 "fair@@": 4852,
 "-skinned": 4853,
 "die": 4854,
 "tle": 4855,
 "hoo@@": 4856,
 "telling": 4857,
 "parlor": 4858,
 "attired": 4859,
 "drunk": 4860,
 "bling": 4861,
 "squat": 4862,
 "ny@@": 4863,
 "records": 4864,
 "shrimp": 4865,
 "tug": 4866,
 "itself": 4867,
 "pressing": 4868,
 "united": 4869,
 "is@@": 4870,
 "now": 4871,
 "cycle": 4872,
 "ic": 4873,
 "tasks": 4874,
 "plugging": 4875,
 "dir@@": 4876,
 "cycles": 4877,
 "pastry": 4878,
 "explorer": 4879,
 "vietnamese": 4880,
 "upper": 4881,
 "dries": 4882,
 "paw": 4883,
 "france": 4884,
 "pages": 4885,
 "oxford": 4886,
 "holing": 4887,
 "gripping": 4888,
 "school-aged": 4889,
 "bean@@": 4890,
 "signal": 4891,
 "del@@": 4892,
 "collected": 4893,
 "squinting": 4894,
 "tobacco": 4895,
 "aling": 4896,
 "tend": 4897,
 "gifts": 4898,
 "topped": 4899,
 "lego": 4900,
 "featured": 4901,
 "dustpan": 4902,
 "lling": 4903,
 "amused": 4904,
 "wrist@@": 4905,
 "shelf": 4906,
 "videotapes": 4907,
 "crashes": 4908,
 "ssi@@": 4909,
 "robed": 4910,
 "content": 4911,
 "pump": 4912,
 "everywhere": 4913,
 "grouped": 4914,
 "fic@@": 4915,
 "ceramic": 4916,
 "sari": 4917,
 "upcoming": 4918,
 "dealer": 4919,
 "zip@@": 4920,
 "exam@@": 4921,
 "baggage": 4922,
 "sky-@@": 4923,
 "mesmerized": 4924,
 "rid": 4925,
 "provide": 4926,
 "costumed": 4927,
 "kinds": 4928,
 "seemingly": 4929,
 "charging": 4930,
 "shading": 4931,
 "audio": 4932,
 "remove": 4933,
 "saxophones": 4934,
 "brindle": 4935,
 "tle@@": 4936,
 "shaded": 4937,
 "mexico": 4938,
 "removes": 4939,
 "equipped": 4940,
 "guest": 4941,
 "session": 4942,
 "press": 4943,
 "patiently": 4944,
 "uniquely": 4945,
 "wallet": 4946,
 "beagle": 4947,
 "freeway": 4948,
 "ths": 4949,
 "adding": 4950,
 "screwdriver": 4951,
 "mon@@": 4952,
 "chu@@": 4953,
 "bil@@": 4954,
 "effort": 4955,
 "threw": 4956,
 "backhand": 4957,
 "nursing": 4958,
 "app@@": 4959,
 "vaulting": 4960,
 "noodle": 4961,
 "bucks": 4962,
 "cabinet": 4963,
 "indians": 4964,
 "cheers": 4965,
 "patches": 4966,
 "banquet": 4967,
 "retriever": 4968,
 "captures": 4969,
 "vers": 4970,
 "welds": 4971,
 "ise": 4972,
 "ponytails": 4973,
 "onlooker": 4974,
 "len@@": 4975,
 "toss": 4976,
 "bulls": 4977,
 "moose": 4978,
 "ian": 4979,
 "aquatic": 4980,
 "towering": 4981,
 "reviewing": 4982,
 "trap": 4983,
 "gger": 4984,
 "attend": 4985,
 "cameramen": 4986,
 "hamburgers": 4987,
 "mid-jump": 4988,
 "lun@@": 4989,
 "vs": 4990,
 "web": 4991,
 "ave": 4992,
 "rer": 4993,
 "sunhats": 4994,
 "applied": 4995,
 "pastor": 4996,
 "paying": 4997,
 "somersault": 4998,
 "twilight": 4999,
 "meditating": 5000,
 "claw": 5001,
 "cat@@": 5002,
 "dly": 5003,
 "intimate": 5004,
 "boa": 5005,
 "styrofoam": 5006,
 "shi@@": 5007,
 "tive": 5008,
 "crotch": 5009,
 "exposing": 5010,
 "napkin": 5011,
 "poli@@": 5012,
 "ponders": 5013,
 "footprints": 5014,
 "hello": 5015,
 "wers": 5016,
 "stry": 5017,
 "00": 5018,
 "government": 5019,
 "sume": 5020,
 "directed": 5021,
 "canes": 5022,
 "marina": 5023,
 "maneuvering": 5024,
 "past@@": 5025,
 "wii": 5026,
 "sweet": 5027,
 "nibbling": 5028,
 "mirrored": 5029,
 "py": 5030,
 "semi-@@": 5031,
 "peo@@": 5032,
 "pl@@": 5033,
 "tutus": 5034,
 "cutout": 5035,
 "llama": 5036,
 "growing": 5037,
 "entertained": 5038,
 "moti@@": 5039,
 "grandmother": 5040,
 "festive": 5041,
 "housing": 5042,
 "patron": 5043,
 "addressing": 5044,
 "il": 5045,
 "aluminum": 5046,
 "screams": 5047,
 "knives": 5048,
 "launch": 5049,
 "leotards": 5050,
 "ragged": 5051,
 "bearer": 5052,
 "inner": 5053,
 "grounds": 5054,
 "dging": 5055,
 "spiking": 5056,
 "transport": 5057,
 "vacuums": 5058,
 "spreading": 5059,
 "bats": 5060,
 "pockets": 5061,
 "menus": 5062,
 "ary": 5063,
 "strewn": 5064,
 "lassoing": 5065,
 "fel@@": 5066,
 "cou@@": 5067,
 "trips": 5068,
 "crystal": 5069,
 "shelter": 5070,
 "adolescent": 5071,
 "mixes": 5072,
 "ily": 5073,
 "investi@@": 5074,
 "assortment": 5075,
 "loop": 5076,
 "pumpkins": 5077,
 "wheeling": 5078,
 "ferry": 5079,
 "feeds": 5080,
 "sparse": 5081,
 "liter@@": 5082,
 "hatted": 5083,
 "secured": 5084,
 "dorm": 5085,
 "stained": 5086,
 "euro": 5087,
 "manhole": 5088,
 "captain": 5089,
 "treats": 5090,
 "conven@@": 5091,
 "shel@@": 5092,
 "gri@@": 5093,
 "fr@@": 5094,
 "bark": 5095,
 "demonstr@@": 5096,
 "see@@": 5097,
 "penguin": 5098,
 "sweating": 5099,
 "portraits": 5100,
 "spain": 5101,
 "profile": 5102,
 "mad@@": 5103,
 "but@@": 5104,
 "answers": 5105,
 "uncompleted": 5106,
 "mad": 5107,
 "batons": 5108,
 "rig": 5109,
 "latino": 5110,
 "rav@@": 5111,
 "sprints": 5112,
 "headgear": 5113,
 "racquet": 5114,
 "tailed": 5115,
 "ney": 5116,
 "contains": 5117,
 "strumming": 5118,
 "coney": 5119,
 "graduate": 5120,
 "panda": 5121,
 "elbow": 5122,
 "iz@@": 5123,
 "cushion": 5124,
 "border": 5125,
 "cry": 5126,
 "piercings": 5127,
 "dugout": 5128,
 "overall": 5129,
 "jackhammer": 5130,
 "ducking": 5131,
 "tulips": 5132,
 "physi@@": 5133,
 "hoses": 5134,
 "moder@@": 5135,
 "knits": 5136,
 "bounces": 5137,
 "facade": 5138,
 "00@@": 5139,
 "testing": 5140,
 "trans@@": 5141,
 "polka-dot": 5142,
 "satchel": 5143,
 "violins": 5144,
 "sal@@": 5145,
 "drenched": 5146,
 "films": 5147,
 "cord": 5148,
 "sips": 5149,
 "thor@@": 5150,
 "handlebars": 5151,
 "letter": 5152,
 "mannequins": 5153,
 "overlooks": 5154,
 "crocs": 5155,
 "numbered": 5156,
 "ston@@": 5157,
 "3rd": 5158,
 "thread": 5159,
 "que": 5160,
 "sparklers": 5161,
 "statute": 5162,
 "highly": 5163,
 "den@@": 5164,
 "yet": 5165,
 "chew": 5166,
 "slee@@": 5167,
 "electrician": 5168,
 "rowers": 5169,
 "tuxedos": 5170,
 "hip@@": 5171,
 "ripped": 5172,
 "ia": 5173,
 "kitty": 5174,
 "ne": 5175,
 "rehearsing": 5176,
 "mopping": 5177,
 "battling": 5178,
 "explosion": 5179,
 "blue@@": 5180,
 "break@@": 5181,
 "aff@@": 5182,
 "ious": 5183,
 "knight": 5184,
 "lation": 5185,
 "marsh": 5186,
 "scoops": 5187,
 "everyone": 5188,
 "squarepants": 5189,
 "bor@@": 5190,
 "every": 5191,
 "enthusiast": 5192,
 "better": 5193,
 "o-@@": 5194,
 "darkness": 5195,
 "spilled": 5196,
 "twirl": 5197,
 "l-@@": 5198,
 "smirking": 5199,
 "reflections": 5200,
 "kit": 5201,
 "dumps": 5202,
 "turtleneck": 5203,
 "depicting": 5204,
 "sandpit": 5205,
 "blacktop": 5206,
 "might": 5207,
 "hurdles": 5208,
 "happening": 5209,
 "cobbled": 5210,
 "boun@@": 5211,
 "cac@@": 5212,
 "son@@": 5213,
 "sun-@@": 5214,
 "bordered": 5215,
 "blossoming": 5216,
 "paral@@": 5217,
 "bug": 5218,
 "dan@@": 5219,
 "deli@@": 5220,
 "tie-@@": 5221,
 "knee-@@": 5222,
 "mp@@": 5223,
 "list": 5224,
 "zombie": 5225,
 "sedan": 5226,
 "greet": 5227,
 "arguing": 5228,
 "i-@@": 5229,
 "sion": 5230,
 "rooms": 5231,
 "route": 5232,
 "ade": 5233,
 "popping": 5234,
 "sipping": 5235,
 "heartbeat": 5236,
 "darts": 5237,
 "stethoscope": 5238,
 "honor": 5239,
 "recently": 5240,
 "broad@@": 5241,
 "geese": 5242,
 "spectacular": 5243,
 "mustachioed": 5244,
 "kickboxing": 5245,
 "natural": 5246,
 "ollie": 5247,
 "opportunity": 5248,
 "cy@@": 5249,
 "fliers": 5250,
 "handicapped": 5251,
 "d-up": 5252,
 "bathed": 5253,
 "infants": 5254,
 "vision": 5255,
 "limb": 5256,
 "packages": 5257,
 "bounce": 5258,
 "wildflowers": 5259,
 "ff": 5260,
 "shell": 5261,
 "entertains": 5262,
 "pruning": 5263,
 "lan@@": 5264,
 "shu@@": 5265,
 "needed": 5266,
 "run@@": 5267,
 "capes": 5268,
 "nuts": 5269,
 ":": 5270,
 "rise": 5271,
 "alli@@": 5272,
 "pee@@": 5273,
 "darkly": 5274,
 "forklift": 5275,
 "secre@@": 5276,
 "tat@@": 5277,
 "conduc@@": 5278,
 "ponchos": 5279,
 "latex": 5280,
 "duffel": 5281,
 "silk": 5282,
 "feed": 5283,
 "primitive": 5284,
 "refe@@": 5285,
 "cleats": 5286,
 "pen@@": 5287,
 "sizes": 5288,
 "glass@@": 5289,
 "ature": 5290,
 "allow": 5291,
 "needs": 5292,
 "manual": 5293,
 "bb@@": 5294,
 "ader": 5295,
 "ssions": 5296,
 "ical": 5297,
 "warmly": 5298,
 "bowed": 5299,
 "crashed": 5300,
 "change": 5301,
 "excav@@": 5302,
 "cracks": 5303,
 "adul@@": 5304,
 "frosting": 5305,
 "inning": 5306,
 "ming": 5307,
 "sparkler": 5308,
 "rooster": 5309,
 "life@@": 5310,
 "dozen": 5311,
 "enters": 5312,
 "trots": 5313,
 "sippy": 5314,
 "friendly": 5315,
 "exit": 5316,
 "dom": 5317,
 "informal": 5318,
 "a.": 5319,
 "italian": 5320,
 "underway": 5321,
 "ambulance": 5322,
 "master": 5323,
 "lollipop": 5324,
 "countertop": 5325,
 "ripp@@": 5326,
 "entertainment": 5327,
 "skinned": 5328,
 "dos": 5329,
 "sar@@": 5330,
 "hal@@": 5331,
 "woodworking": 5332,
 "quilt": 5333,
 "inspec@@": 5334,
 "assembly": 5335,
 "ek": 5336,
 "vely": 5337,
 "12": 5338,
 "bouncy": 5339,
 "clerk": 5340,
 "outcropping": 5341,
 "ght": 5342,
 "gorgeous": 5343,
 "post-@@": 5344,
 "dreads": 5345,
 "alig@@": 5346,
 "ns": 5347,
 "chee@@": 5348,
 "sock": 5349,
 "bing": 5350,
 "vic@@": 5351,
 "ron@@": 5352,
 "bat@@": 5353,
 "extreme": 5354,
 "suited": 5355,
 "sleds": 5356,
 "pursued": 5357,
 "uphill": 5358,
 "hundreds": 5359,
 "fold-up": 5360,
 "lons": 5361,
 "bin@@": 5362,
 "whose": 5363,
 "outstreached": 5364,
 "canned": 5365,
 "lar@@": 5366,
 "stap@@": 5367,
 "du": 5368,
 "crocodile": 5369,
 "ironing": 5370,
 "fists": 5371,
 "skill": 5372,
 "machete": 5373,
 "aim": 5374,
 "kettle": 5375,
 "stu@@": 5376,
 "den": 5377,
 "mosque": 5378,
 "congregated": 5379,
 "engages": 5380,
 "gn@@": 5381,
 "ant@@": 5382,
 "congregating": 5383,
 "tin": 5384,
 "swi@@": 5385,
 "rectangular": 5386,
 "keeper": 5387,
 "meals": 5388,
 "trumpets": 5389,
 "butter": 5390,
 "shadowed": 5391,
 "released": 5392,
 "again": 5393,
 "geometric": 5394,
 "bmw": 5395,
 "bul@@": 5396,
 "gates": 5397,
 "burger": 5398,
 "rescue": 5399,
 "electrical": 5400,
 "sleigh": 5401,
 "lakeside": 5402,
 "veil": 5403,
 "wheat": 5404,
 "poorly": 5405,
 "hula-hoops": 5406,
 "dwelling": 5407,
 "ser": 5408,
 "ended": 5409,
 "strobe": 5410,
 "foo@@": 5411,
 "ries": 5412,
 "bumper": 5413,
 "abs": 5414,
 "gy@@": 5415,
 "tee@@": 5416,
 "easter": 5417,
 "sucks": 5418,
 "holidays": 5419,
 "ornament": 5420,
 "sat": 5421,
 "marsh@@": 5422,
 "instruc@@": 5423,
 "trio": 5424,
 "inc@@": 5425,
 "val": 5426,
 "entertaining": 5427,
 "ished": 5428,
 "limo": 5429,
 "butchering": 5430,
 "curtain": 5431,
 "junk": 5432,
 "creative": 5433,
 "karaoke": 5434,
 "reco@@": 5435,
 "vin@@": 5436,
 "los": 5437,
 "cages": 5438,
 "unusually": 5439,
 "dimly-lit": 5440,
 "gray@@": 5441,
 "sal": 5442,
 "awaits": 5443,
 "collide": 5444,
 "index": 5445,
 "dried": 5446,
 "sponge": 5447,
 "flights": 5448,
 "sticker": 5449,
 "spiderman": 5450,
 "suite": 5451,
 "ailing": 5452,
 "littered": 5453,
 "ails": 5454,
 "stone-@@": 5455,
 "camcorder": 5456,
 "handmade": 5457,
 "names": 5458,
 "stle": 5459,
 "faced": 5460,
 "stre@@": 5461,
 "ven@@": 5462,
 "comfor@@": 5463,
 "atic": 5464,
 "ay": 5465,
 "flooded": 5466,
 "ill": 5467,
 "fences": 5468,
 "cen@@": 5469,
 "proud": 5470,
 "sta": 5471,
 "breakfast": 5472,
 "campaign": 5473,
 "streetlights": 5474,
 "joe": 5475,
 "snoo@@": 5476,
 "pets": 5477,
 "maneuvers": 5478,
 "huts": 5479,
 "tter": 5480,
 "bull@@": 5481,
 "chi@@": 5482,
 "parka": 5483,
 "body@@": 5484,
 "spa": 5485,
 "flood": 5486,
 "admires": 5487,
 "briskly": 5488,
 "rain@@": 5489,
 "rist@@": 5490,
 "earbuds": 5491,
 "ter@@": 5492,
 "notebooks": 5493,
 "paintball": 5494,
 "awe": 5495,
 "wade": 5496,
 "size": 5497,
 "sauna": 5498,
 "blade": 5499,
 "pul@@": 5500,
 "-shaped": 5501,
 "rakes": 5502,
 "chev@@": 5503,
 "cereal": 5504,
 "launches": 5505,
 "enthusiastic": 5506,
 "skin": 5507,
 "rainstorm": 5508,
 "ditch": 5509,
 "aves": 5510,
 "cakes": 5511,
 "ari@@": 5512,
 "counters": 5513,
 "rushing": 5514,
 "sprinkles": 5515,
 "bead": 5516,
 "mike": 5517,
 "kins": 5518,
 "huddling": 5519,
 "leafy": 5520,
 "inten@@": 5521,
 "ou@@": 5522,
 "powerpoint": 5523,
 "bins": 5524,
 "demo@@": 5525,
 "tted": 5526,
 "wa@@": 5527,
 "bagpipe": 5528,
 "hammers": 5529,
 "restaurants": 5530,
 "pretends": 5531,
 "lon@@": 5532,
 "sla@@": 5533,
 "painters": 5534,
 "umber": 5535,
 "tends": 5536,
 "snowbank": 5537,
 "ssion": 5538,
 "reacting": 5539,
 "sewer": 5540,
 "downwards": 5541,
 "surfboarder": 5542,
 "ymca": 5543,
 "nished": 5544,
 "skyscraper": 5545,
 "sleepy": 5546,
 "lting": 5547,
 "turbulent": 5548,
 "tal@@": 5549,
 "twen@@": 5550,
 "-deep": 5551,
 "wel@@": 5552,
 "waist@@": 5553,
 "plan": 5554,
 "correc@@": 5555,
 "white-water": 5556,
 "innertube": 5557,
 "braids": 5558,
 "tinted": 5559,
 "sure": 5560,
 "apped": 5561,
 "camera@@": 5562,
 "tains": 5563,
 "welder": 5564,
 "eleven": 5565,
 "spattered": 5566,
 "sunflower": 5567,
 "situation": 5568,
 "ative": 5569,
 "one@@": 5570,
 "symphony": 5571,
 "op@@": 5572,
 "consults": 5573,
 "bonnet": 5574,
 "handler": 5575,
 "ure@@": 5576,
 "forearm": 5577,
 "urinal": 5578,
 "just@@": 5579,
 "uring": 5580,
 "reflects": 5581,
 "cuc@@": 5582,
 "ous-@@": 5583,
 "snuggling": 5584,
 "treeless": 5585,
 "programs": 5586,
 "shoeing": 5587,
 "closing": 5588,
 "high-five": 5589,
 "wakeboards": 5590,
 "beds": 5591,
 "powdered": 5592,
 "sequence": 5593,
 "blacksmith": 5594,
 "blooming": 5595,
 "worked": 5596,
 "slan@@": 5597,
 "trendy": 5598,
 "blosso@@": 5599,
 "ham": 5600,
 "form@@": 5601,
 "eyeliner": 5602,
 "comical": 5603,
 "video@@": 5604,
 "van@@": 5605,
 "spec@@": 5606,
 "erected": 5607,
 "tters": 5608,
 "hide": 5609,
 "respon@@": 5610,
 "aters": 5611,
 "terri@@": 5612,
 "regarding": 5613,
 "frown": 5614,
 "famous": 5615,
 "bes": 5616,
 "walkman": 5617,
 "tae": 5618,
 "travel@@": 5619,
 "freight": 5620,
 "grap@@": 5621,
 "worshi@@": 5622,
 "creation": 5623,
 "pers": 5624,
 "mingle": 5625,
 "pple": 5626,
 "conif@@": 5627,
 "co": 5628,
 "supervision": 5629,
 "kwon": 5630,
 "upper-class": 5631,
 "peppers": 5632,
 "warrior": 5633,
 "surprised": 5634,
 "bee@@": 5635,
 "class@@": 5636,
 "wrapp@@": 5637,
 "assem@@": 5638,
 "coaches": 5639,
 "lished": 5640,
 "ry-@@": 5641,
 "mover": 5642,
 "pharmacy": 5643,
 "awaiting": 5644,
 "urs": 5645,
 "ku@@": 5646,
 "michigan": 5647,
 "populated": 5648,
 "icul@@": 5649,
 "diff@@": 5650,
 "contained": 5651,
 "version": 5652,
 "tipped": 5653,
 "builds": 5654,
 "klein": 5655,
 "technician": 5656,
 "calvin": 5657,
 "platforms": 5658,
 "copies": 5659,
 "experien@@": 5660,
 "meats": 5661,
 "sword@@": 5662,
 "calendar": 5663,
 "attended": 5664,
 "neighbors": 5665,
 "handy@@": 5666,
 "sushi": 5667,
 "regi@@": 5668,
 "cheerful": 5669,
 "d-looking": 5670,
 "affection": 5671,
 "bean": 5672,
 "origin": 5673,
 "wakeboarding": 5674,
 "particular": 5675,
 "clips": 5676,
 "pineapples": 5677,
 "dip": 5678,
 "snowmobiling": 5679,
 "ali@@": 5680,
 "secures": 5681,
 "mood": 5682,
 "saws": 5683,
 "bor": 5684,
 "ured": 5685,
 "source": 5686,
 "height": 5687,
 "clasps": 5688,
 "corsage": 5689,
 "skiiers": 5690,
 "swa@@": 5691,
 "flamboyant": 5692,
 "aims": 5693,
 "approached": 5694,
 "ell": 5695,
 "four@@": 5696,
 "ninja": 5697,
 "14": 5698,
 "roo@@": 5699,
 "intricate": 5700,
 "bud@@": 5701,
 "fris@@": 5702,
 "backflip": 5703,
 "islamic": 5704,
 "animatedly": 5705,
 "culinary": 5706,
 "captivated": 5707,
 "clever": 5708,
 "circuit": 5709,
 "swung": 5710,
 "ginger": 5711,
 "alpine": 5712,
 "crabs": 5713,
 "fter": 5714,
 "tim": 5715,
 "rema@@": 5716,
 "bun": 5717,
 "slamming": 5718,
 "ama": 5719,
 "tons": 5720,
 "motor-scooter": 5721,
 "aving": 5722,
 "ners": 5723,
 "bloody": 5724,
 "toil": 5725,
 "ethnicities": 5726,
 "riverbed": 5727,
 "fatigues": 5728,
 "snarling": 5729,
 "pabst": 5730,
 "ascends": 5731,
 "diet": 5732,
 "grate": 5733,
 "water-filled": 5734,
 "mongolian": 5735,
 "dober@@": 5736,
 "appre@@": 5737,
 "wife-beater": 5738,
 "visit": 5739,
 "swir@@": 5740,
 "tri-colored": 5741,
 "coast@@": 5742,
 "extin@@": 5743,
 "gui@@": 5744,
 "lizard": 5745,
 "spac@@": 5746,
 "sling": 5747,
 "brigh@@": 5748,
 "cting": 5749,
 "marl@@": 5750,
 "conne@@": 5751,
 "gateway": 5752,
 "drummers": 5753,
 "funky": 5754,
 "jacks": 5755,
 "fluid": 5756,
 "ink": 5757,
 "shish": 5758,
 "rough-@@": 5759,
 "spinner": 5760,
 "egret": 5761,
 "mills": 5762,
 "varied": 5763,
 "moss-covered": 5764,
 "gambling": 5765,
 "tilted": 5766,
 "light-@@": 5767,
 "haul": 5768,
 "dollhouse": 5769,
 "room@@": 5770,
 "openings": 5771,
 "sends": 5772,
 "sash": 5773,
 "cupping": 5774,
 "rehear@@": 5775,
 "ensemble": 5776,
 "hovering": 5777,
 "swoops": 5778,
 "cr@@": 5779,
 "releasing": 5780,
 "pum@@": 5781,
 "showgirl": 5782,
 "trim": 5783,
 "lava": 5784,
 "mounds": 5785,
 "iced": 5786,
 "ufc": 5787,
 "stoops": 5788,
 "sculp@@": 5789,
 "atten@@": 5790,
 "fic": 5791,
 "sai@@": 5792,
 "ette": 5793,
 "amber": 5794,
 "cultural": 5795,
 "supports": 5796,
 "due": 5797,
 "grandfather": 5798,
 "ing-": 5799,
 "contestant": 5800,
 "shabby": 5801,
 "pioneer": 5802,
 "swans": 5803,
 "clog": 5804,
 "weights": 5805,
 "teachers": 5806,
 "leak": 5807,
 "completes": 5808,
 "slo@@": 5809,
 "brownish": 5810,
 "chief": 5811,
 "batting": 5812,
 "eg@@": 5813,
 "barn": 5814,
 "recycling": 5815,
 "gyp@@": 5816,
 "blond-headed": 5817,
 "binder": 5818,
 "view@@": 5819,
 "ager": 5820,
 "consum@@": 5821,
 "wounds": 5822,
 "teaches": 5823,
 "ple": 5824,
 "treads": 5825,
 "art@@": 5826,
 "ism": 5827,
 "organ@@": 5828,
 "bring": 5829,
 "mixture": 5830,
 "ascar": 5831,
 "pas@@": 5832,
 "presented": 5833,
 "release": 5834,
 "mmed": 5835,
 "perfum@@": 5836,
 "long-distance": 5837,
 ".com": 5838,
 "trad@@": 5839,
 "wre@@": 5840,
 "proper@@": 5841,
 "candlelight": 5842,
 "tte": 5843,
 "sor@@": 5844,
 "insect": 5845,
 "semi-circle": 5846,
 "seal": 5847,
 "strums": 5848,
 "circ@@": 5849,
 "pouncing": 5850,
 "hamming": 5851,
 "quietly": 5852,
 "pens": 5853,
 "colleagues": 5854,
 "mischie@@": 5855,
 "cramped": 5856,
 "at-@@": 5857,
 "oceanside": 5858,
 "bibs": 5859,
 "wil@@": 5860,
 "triangle": 5861,
 "applauding": 5862,
 "bloom": 5863,
 "downing": 5864,
 "dress@@": 5865,
 "ya@@": 5866,
 "leisurely": 5867,
 "ket@@": 5868,
 "multi@@": 5869,
 "documents": 5870,
 "a-@@": 5871,
 "labradoodle": 5872,
 "lapse": 5873,
 "grinder": 5874,
 "ornamental": 5875,
 "roun@@": 5876,
 "landsc@@": 5877,
 "left-handed": 5878,
 "eyed": 5879,
 "tively": 5880,
 "duc@@": 5881,
 "raw": 5882,
 "flap": 5883,
 "classical": 5884,
 "puff": 5885,
 "dandelion": 5886,
 "mean@@": 5887,
 "involves": 5888,
 "issue": 5889,
 "hs": 5890,
 "eyeing": 5891,
 "xed": 5892,
 "bale": 5893,
 "flow@@": 5894,
 "penske": 5895,
 "poultry": 5896,
 "aviator": 5897,
 "illuminating": 5898,
 "breaststroke": 5899,
 "cted": 5900,
 "grains": 5901,
 "off-@@": 5902,
 "cin@@": 5903,
 "hippie": 5904,
 "ely": 5905,
 "putt": 5906,
 "thin@@": 5907,
 "arti@@": 5908,
 "linens": 5909,
 "fresco": 5910,
 "west": 5911,
 "up@@": 5912,
 "volcano": 5913,
 "stern": 5914,
 "graphy": 5915,
 "opinions": 5916,
 "voice": 5917,
 "melons": 5918,
 "bonfire": 5919,
 "short-sleeve": 5920,
 "exper@@": 5921,
 "trade": 5922,
 "spoons": 5923,
 "glam@@": 5924,
 "ada": 5925,
 "nanny": 5926,
 "inspired": 5927,
 "shift": 5928,
 "securing": 5929,
 "manu@@": 5930,
 "mobil@@": 5931,
 "isra@@": 5932,
 "martini": 5933,
 "exhau@@": 5934,
 "cul@@": 5935,
 "gle": 5936,
 "regal": 5937,
 "pineapple": 5938,
 "historical": 5939,
 "experiments": 5940,
 "engaging": 5941,
 "jum@@": 5942,
 "ain": 5943,
 "neatly": 5944,
 "glowing": 5945,
 "churning": 5946,
 "registered": 5947,
 "forehand": 5948,
 "spen@@": 5949,
 "rad": 5950,
 "sty@@": 5951,
 "contested": 5952,
 "busker": 5953,
 "management": 5954,
 "bugs": 5955,
 "mauve": 5956,
 "bunches": 5957,
 "elaborately": 5958,
 "blackboard": 5959,
 "rics": 5960,
 "emptying": 5961,
 "grips": 5962,
 "kn@@": 5963,
 "u.s.": 5964,
 "nears": 5965,
 "aking": 5966,
 "kickboxer": 5967,
 "manicured": 5968,
 "syrup": 5969,
 "showers": 5970,
 "propell@@": 5971,
 "eclectic": 5972,
 "grandparents": 5973,
 "upturned": 5974,
 "remember": 5975,
 "mane": 5976,
 "sprin@@": 5977,
 "hedges": 5978,
 "nin@@": 5979,
 "mini-golf": 5980,
 "paddled": 5981,
 "jesus": 5982,
 "velo@@": 5983,
 "sid@@": 5984,
 "ecstatically": 5985,
 "folders": 5986,
 "buttons": 5987,
 "francisco": 5988,
 "greenhouse": 5989,
 "graffiti-@@": 5990,
 "pact": 5991,
 "transformer": 5992,
 "bill": 5993,
 "juggler": 5994,
 "oars": 5995,
 "crammed": 5996,
 "peruses": 5997,
 "confe@@": 5998,
 "espresso": 5999,
 "skulls": 6000,
 "g-@@": 6001,
 "blu@@": 6002,
 "dag@@": 6003,
 "supported": 6004,
 "chipper": 6005,
 "blur": 6006,
 "bunk": 6007,
 "billy": 6008,
 "wan": 6009,
 "tail@@": 6010,
 "barker": 6011,
 "dragster": 6012,
 "billi@@": 6013,
 "chili": 6014,
 "camo": 6015,
 "wonder@@": 6016,
 "hopper": 6017,
 "snowmobile": 6018,
 "to-@@": 6019,
 "back-@@": 6020,
 "stylist": 6021,
 "styling": 6022,
 "capture": 6023,
 "pac@@": 6024,
 "spider-@@": 6025,
 "comic": 6026,
 "hunter": 6027,
 "hy@@": 6028,
 "pf": 6029,
 "spending": 6030,
 "joking": 6031,
 "na@@": 6032,
 "splits": 6033,
 "reason": 6034,
 "nerf": 6035,
 "fronds": 6036,
 "wetland": 6037,
 "paris": 6038,
 "whisking": 6039,
 "necktie": 6040,
 "chested": 6041,
 "intrigued": 6042,
 "acking": 6043,
 "indi@@": 6044,
 "scan": 6045,
 "fare": 6046,
 "oper@@": 6047,
 "shir@@": 6048,
 "frowning": 6049,
 "pretend": 6050,
 "ng": 6051,
 "die@@": 6052,
 "clause": 6053,
 "miscellaneous": 6054,
 "broccoli": 6055,
 "bble": 6056,
 "pasture": 6057,
 "paraphernalia": 6058,
 "condoms": 6059,
 "darth": 6060,
 "starfish": 6061,
 "tortillas": 6062,
 "kelp": 6063,
 "licked": 6064,
 "flow": 6065,
 "mantle": 6066,
 "throat": 6067,
 "lowing": 6068,
 "attacking": 6069,
 "crumbling": 6070,
 "dea": 6071,
 "cler@@": 6072,
 "enrolling": 6073,
 "kawasa@@": 6074,
 "hunt": 6075,
 "fringed": 6076,
 "leave": 6077,
 "soapy": 6078,
 "inn": 6079,
 "lau@@": 6080,
 "mrs.": 6081,
 "reindeer": 6082,
 "snowflakes": 6083,
 "lls": 6084,
 "disco": 6085,
 "trekking": 6086,
 "bad": 6087,
 "roller-bla@@": 6088,
 "rose": 6089,
 "competitively": 6090,
 "schools": 6091,
 "saving": 6092,
 "bushel": 6093,
 "certific@@": 6094,
 "airways": 6095,
 "lemonade": 6096,
 "garish": 6097,
 "graffited": 6098,
 "ales": 6099,
 "-block": 6100,
 "color@@": 6101,
 "touch@@": 6102,
 "bone": 6103,
 "bodies": 6104,
 "gal@@": 6105,
 "worried": 6106,
 "clenches": 6107,
 "ato@@": 6108,
 "aside": 6109,
 "repairman": 6110,
 "architectural": 6111,
 "scrimmage": 6112,
 "jackson": 6113,
 "michael": 6114,
 "seamstress": 6115,
 "bake": 6116,
 "waterfalls": 6117,
 "sending": 6118,
 "blasts": 6119,
 "ites": 6120,
 "technical": 6121,
 "smock": 6122,
 "paperback": 6123,
 "dim": 6124,
 "superior": 6125,
 "rates": 6126,
 "take@@": 6127,
 "should": 6128,
 "hip": 6129,
 "glow": 6130,
 "skit": 6131,
 "handkerchiefs": 6132,
 "underside": 6133,
 "plow": 6134,
 "ggling": 6135,
 "buffalo": 6136,
 "18@@": 6137,
 "seas": 6138,
 "bowled": 6139,
 "oling": 6140,
 "briefcases": 6141,
 "private": 6142,
 "decides": 6143,
 "roof@@": 6144,
 "humping": 6145,
 "collision": 6146,
 "nat@@": 6147,
 "ensure": 6148,
 "ire": 6149,
 "coached": 6150,
 "amic": 6151,
 "las": 6152,
 "pork": 6153,
 "rad@@": 6154,
 "choppy": 6155,
 "vol@@": 6156,
 "flinging": 6157,
 "flutes": 6158,
 "accompaniment": 6159,
 "stitch": 6160,
 "gon": 6161,
 "port@@": 6162,
 "wrists": 6163,
 "witne@@": 6164,
 "softly": 6165,
 "mowed": 6166,
 "downward": 6167,
 "learn": 6168,
 "brea@@": 6169,
 "itch@@": 6170,
 "teas@@": 6171,
 "flaps": 6172,
 "tye-dyed": 6173,
 "twe@@": 6174,
 "grain": 6175,
 "peddling": 6176,
 "dun@@": 6177,
 "mbs": 6178,
 "taped": 6179,
 "pean@@": 6180,
 "projection": 6181,
 "shawls": 6182,
 "africans": 6183,
 "born": 6184,
 "herbs": 6185,
 "camps": 6186,
 "handshake": 6187,
 "judge": 6188,
 "soaking": 6189,
 "parasail": 6190,
 "volle@@": 6191,
 "pelican": 6192,
 "choreographed": 6193,
 "coconut": 6194,
 "paras@@": 6195,
 "easy": 6196,
 "contingent": 6197,
 "gh": 6198,
 "longing": 6199,
 "memorabilia": 6200,
 "homework": 6201,
 "fitting": 6202,
 "spiky": 6203,
 "buys": 6204,
 "large-@@": 6205,
 "des@@": 6206,
 "upside-down": 6207,
 "ty-@@": 6208,
 "outboard": 6209,
 "grimac@@": 6210,
 "trid@@": 6211,
 "irish": 6212,
 "chimney": 6213,
 "glittery": 6214,
 "tress": 6215,
 "tering": 6216,
 "tal": 6217,
 "retrie@@": 6218,
 "less@@": 6219,
 "vo": 6220,
 "pered": 6221,
 "restaraunt": 6222,
 "squirrel": 6223,
 "fun@@": 6224,
 "spotlights": 6225,
 "protec@@": 6226,
 "rugged": 6227,
 "upraised": 6228,
 "creepy": 6229,
 "thful": 6230,
 "deciding": 6231,
 "eagle": 6232,
 "cha@@": 6233,
 "wok": 6234,
 "ement": 6235,
 "hollow": 6236,
 "stat@@": 6237,
 "contorts": 6238,
 "heron": 6239,
 "jim": 6240,
 "ants": 6241,
 "green@@": 6242,
 "top-hat": 6243,
 "breakdances": 6244,
 "indigenous": 6245,
 "dumping": 6246,
 "lake-side": 6247,
 "slalom": 6248,
 "toes": 6249,
 "news@@": 6250,
 "read@@": 6251,
 "unkempt": 6252,
 "barricade": 6253,
 "ads": 6254,
 "evenly": 6255,
 "anim@@": 6256,
 "strips": 6257,
 "risk": 6258,
 "proclaim": 6259,
 "god": 6260,
 "defending": 6261,
 "lavi@@": 6262,
 "tinsel": 6263,
 "ably": 6264,
 "fashi@@": 6265,
 "ron": 6266,
 "sveral": 6267,
 "setup": 6268,
 "hamper": 6269,
 "swamp": 6270,
 "nel": 6271,
 "unk": 6272,
 "flashy": 6273,
 "orn": 6274,
 "lavender": 6275,
 "thatched": 6276,
 "motor-cross": 6277,
 "headlight": 6278,
 "fencers": 6279,
 "identi@@": 6280,
 "interviews": 6281,
 "poun@@": 6282,
 "filmed": 6283,
 "salesman": 6284,
 "sat@@": 6285,
 "um@@": 6286,
 "off-white": 6287,
 "stopping": 6288,
 "street-side": 6289,
 "saxophon@@": 6290,
 "carol": 6291,
 "cue": 6292,
 "smear": 6293,
 "suspension": 6294,
 "carcas@@": 6295,
 "orous": 6296,
 "leader": 6297,
 "troop": 6298,
 "polis": 6299,
 "shut@@": 6300,
 "sucker": 6301,
 "brothers": 6302,
 "tucked": 6303,
 "pomeranian": 6304,
 "swaddled": 6305,
 "ani@@": 6306,
 "showcasing": 6307,
 "nap@@": 6308,
 "louvre": 6309,
 "tic": 6310,
 "religi@@": 6311,
 "pancakes": 6312,
 "oh": 6313,
 "cutter": 6314,
 "conso@@": 6315,
 "compartment": 6316,
 "assisted": 6317,
 "props": 6318,
 "diplo@@": 6319,
 "tran@@": 6320,
 "passer": 6321,
 "mart": 6322,
 "idle": 6323,
 "flier": 6324,
 "occurred": 6325,
 "angles": 6326,
 "selects": 6327,
 "clustered": 6328,
 "fum@@": 6329,
 "flame": 6330,
 "placard": 6331,
 "penn": 6332,
 "exhib@@": 6333,
 "hairdo": 6334,
 "vessel": 6335,
 "vation": 6336,
 "wristband": 6337,
 "fired": 6338,
 "gun@@": 6339,
 "bathes": 6340,
 "herd": 6341,
 "olympians": 6342,
 "an-@@": 6343,
 "rather": 6344,
 "schi@@": 6345,
 "tick@@": 6346,
 "ump@@": 6347,
 "ral@@": 6348,
 "tes": 6349,
 "international": 6350,
 "magician": 6351,
 "bians": 6352,
 "vikings": 6353,
 "pollution": 6354,
 "hil@@": 6355,
 "homes": 6356,
 "ater": 6357,
 "civilians": 6358,
 "flipped": 6359,
 "embraces": 6360,
 "pick@@": 6361,
 "20@@": 6362,
 "bagel": 6363,
 "occu@@": 6364,
 "ized": 6365,
 "happe@@": 6366,
 "row@@": 6367,
 "komo@@": 6368,
 "ei@@": 6369,
 "double-decker": 6370,
 "sandwiches": 6371,
 "pray": 6372,
 "cadillac": 6373,
 "bra-@@": 6374,
 "lowering": 6375,
 "moon": 6376,
 "builder": 6377,
 "alty": 6378,
 "farming": 6379,
 "reflecting": 6380,
 "doorstep": 6381,
 "kimono": 6382,
 "violence": 6383,
 "bandannas": 6384,
 "quartet": 6385,
 "moored": 6386,
 "three-@@": 6387,
 "photo@@": 6388,
 "v": 6389,
 "aero@@": 6390,
 "tugs": 6391,
 "wavy": 6392,
 "garments": 6393,
 "rep@@": 6394,
 "chemical": 6395,
 "wan@@": 6396,
 "arri@@": 6397,
 "ading": 6398,
 "trooper": 6399,
 "forever": 6400,
 "price": 6401,
 "bistro": 6402,
 "illustr@@": 6403,
 "acce@@": 6404,
 "reenactment": 6405,
 "controlled": 6406,
 "te-@@": 6407,
 "breeze": 6408,
 "concentrating": 6409,
 "magic": 6410,
 "reclining": 6411,
 "sh-@@": 6412,
 "mustang": 6413,
 "zooms": 6414,
 "dribble": 6415,
 "presen@@": 6416,
 "dirt-bike": 6417,
 "rodgers": 6418,
 "align": 6419,
 "tantly": 6420,
 "determined": 6421,
 "conveyor": 6422,
 "wer": 6423,
 "iowa": 6424,
 "minnesota": 6425,
 "yan": 6426,
 "ker@@": 6427,
 "appreciate": 6428,
 "drape": 6429,
 "loses": 6430,
 "alist": 6431,
 "stum@@": 6432,
 "63": 6433,
 "bowing": 6434,
 "dash": 6435,
 "orioles": 6436,
 "cept": 6437,
 "yanke@@": 6438,
 "hooked": 6439,
 "chemistry": 6440,
 "helper": 6441,
 "vie": 6442,
 "grasps": 6443,
 "scoring": 6444,
 "assorted": 6445,
 "icing": 6446,
 "lled": 6447,
 "maje@@": 6448,
 "im": 6449,
 "frolics": 6450,
 "bout": 6451,
 "james": 6452,
 "lebron": 6453,
 "fatigued": 6454,
 "always": 6455,
 "heal@@": 6456,
 "catamaran": 6457,
 "archaeologists": 6458,
 "plume": 6459,
 "cheered": 6460,
 "busking": 6461,
 "go-@@": 6462,
 "sew": 6463,
 "deser@@": 6464,
 "ggle": 6465,
 "oakland": 6466,
 "vault": 6467,
 "jostle": 6468,
 "shoelaces": 6469,
 "steal": 6470,
 "later": 6471,
 "freestyle": 6472,
 "ced": 6473,
 "wood@@": 6474,
 "beaker": 6475,
 "cari@@": 6476,
 "mini": 6477,
 "simple": 6478,
 "key@@": 6479,
 "13": 6480,
 "ice-@@": 6481,
 "slingshot": 6482,
 "waterproof": 6483,
 "finishes": 6484,
 "span@@": 6485,
 "pid": 6486,
 "stunning": 6487,
 "hipsters": 6488,
 "slou@@": 6489,
 "previously": 6490,
 "boaters": 6491,
 "drumming": 6492,
 "fierce": 6493,
 "elegant": 6494,
 "grizz@@": 6495,
 "winds": 6496,
 "needle": 6497,
 "bystander": 6498,
 "metalworking": 6499,
 "mingling": 6500,
 "streaming": 6501,
 "tech": 6502,
 "wanting": 6503,
 "escalators": 6504,
 "adventurous": 6505,
 "wee": 6506,
 "boar@@": 6507,
 "kne@@": 6508,
 "na": 6509,
 "maintained": 6510,
 "geo@@": 6511,
 "carpenter": 6512,
 "figurines": 6513,
 "backed": 6514,
 "mount": 6515,
 "38": 6516,
 "rences": 6517,
 "stic": 6518,
 "inclined": 6519,
 "clicking": 6520,
 "part@@": 6521,
 "short-sleeved": 6522,
 "heat": 6523,
 "explains": 6524,
 "aloft": 6525,
 "hokey": 6526,
 "mulch": 6527,
 "ale": 6528,
 "aud@@": 6529,
 "expec@@": 6530,
 "sax": 6531,
 "hairy": 6532,
 "lockers": 6533,
 "weight@@": 6534,
 "textile": 6535,
 "balling": 6536,
 "baking": 6537,
 "squash": 6538,
 "unfriendly": 6539,
 "stomach@@": 6540,
 "italy": 6541,
 "prop": 6542,
 "assign@@": 6543,
 "ues": 6544,
 "matador": 6545,
 "ines": 6546,
 "irritated": 6547,
 "op": 6548,
 "shepard": 6549,
 "roads": 6550,
 "braid": 6551,
 "terro@@": 6552,
 "oper": 6553,
 "scen@@": 6554,
 "spor@@": 6555,
 "respectively": 6556,
 "adobe": 6557,
 "dies": 6558,
 "flexible": 6559,
 "blue-shirted": 6560,
 "ying": 6561,
 "saluting": 6562,
 "could": 6563,
 "samples": 6564,
 "hides": 6565,
 "violet": 6566,
 "snowshoe": 6567,
 "hurt": 6568,
 "rou@@": 6569,
 "unload": 6570,
 "actions": 6571,
 "retrieve": 6572,
 "adds": 6573,
 "acked": 6574,
 "paddy": 6575,
 "admire": 6576,
 "spe@@": 6577,
 "altitude": 6578,
 "plu@@": 6579,
 "hoi@@": 6580,
 "drawings": 6581,
 "brook": 6582,
 "wits": 6583,
 "super@@": 6584,
 "oxygen": 6585,
 "nibbles": 6586,
 "podiums": 6587,
 "table@@": 6588,
 "album": 6589,
 "ha@@": 6590,
 "check@@": 6591,
 "hitching": 6592,
 "hoe": 6593,
 "donations": 6594,
 "well-lit": 6595,
 "herds": 6596,
 "dged": 6597,
 "missed": 6598,
 "presumably": 6599,
 "true": 6600,
 "enjoyed": 6601,
 "tipping": 6602,
 "detail": 6603,
 "climbed": 6604,
 "russian": 6605,
 "scary": 6606,
 "laps": 6607,
 "entrepre@@": 6608,
 "shadowy": 6609,
 "oblivious": 6610,
 "emotion": 6611,
 "peoples": 6612,
 "tele@@": 6613,
 "rum@@": 6614,
 "language": 6615,
 "tote": 6616,
 "annual": 6617,
 "tent-like": 6618,
 "shrubbery": 6619,
 "middle-eastern": 6620,
 "protectors": 6621,
 "dread@@": 6622,
 "calmly": 6623,
 "navigate": 6624,
 "greens": 6625,
 "murals": 6626,
 "cavern": 6627,
 "resour@@": 6628,
 "announcement": 6629,
 "bled": 6630,
 "yc@@": 6631,
 "ink@@": 6632,
 "cano@@": 6633,
 "sledgehammer": 6634,
 "taping": 6635,
 "mini@@": 6636,
 "dachshund": 6637,
 "50": 6638,
 "hardware": 6639,
 "serious": 6640,
 "glue": 6641,
 "citizen": 6642,
 "thong": 6643,
 "80": 6644,
 "assi@@": 6645,
 "empanadas": 6646,
 "patrick": 6647,
 "barbed": 6648,
 "swit@@": 6649,
 "ine@@": 6650,
 "%": 6651,
 "custo@@": 6652,
 "dutch": 6653,
 "hitchhiking": 6654,
 "gig": 6655,
 "defen@@": 6656,
 "sten@@": 6657,
 "harvest": 6658,
 "header": 6659,
 "fingernails": 6660,
 "envelope": 6661,
 "random": 6662,
 "tho@@": 6663,
 "furiously": 6664,
 "equ@@": 6665,
 "wrench": 6666,
 "treed": 6667,
 "offer": 6668,
 "tt@@": 6669,
 "hijab": 6670,
 "rested": 6671,
 "amplifier": 6672,
 "ures": 6673,
 "thought@@": 6674,
 "separated": 6675,
 "acrobat": 6676,
 "ppers": 6677,
 "fli@@": 6678,
 "serv@@": 6679,
 "thai": 6680,
 "ster@@": 6681,
 "locks": 6682,
 "hear@@": 6683,
 "harlem": 6684,
 "sideline": 6685,
 "ful@@": 6686,
 "recent": 6687,
 "hard-hat": 6688,
 "johns": 6689,
 "didgeri@@": 6690,
 "blind": 6691,
 "wr@@": 6692,
 "scrat@@": 6693,
 "hairdresser": 6694,
 "hid": 6695,
 "pastel": 6696,
 "attaching": 6697,
 "eled": 6698,
 "atlanta": 6699,
 "drawers": 6700,
 "messages": 6701,
 "focal": 6702,
 "lea@@": 6703,
 "gently": 6704,
 "fixture": 6705,
 "gan": 6706,
 "lace": 6707,
 "offered": 6708,
 "armored": 6709,
 "fires": 6710,
 "knitted": 6711,
 "ital": 6712,
 "dled": 6713,
 "scramble": 6714,
 "cher": 6715,
 "chisel": 6716,
 "officials": 6717,
 "195@@": 6718,
 "frowns": 6719,
 "arab": 6720,
 "fiddles": 6721,
 "separates": 6722,
 "plaque": 6723,
 "comforts": 6724,
 "owned": 6725,
 "mail": 6726,
 "array": 6727,
 "slim": 6728,
 "question": 6729,
 "v-@@": 6730,
 "residential": 6731,
 "cell": 6732,
 "direct": 6733,
 "pompoms": 6734,
 "timber": 6735,
 "exten@@": 6736,
 "ades": 6737,
 "brochures": 6738,
 "sign@@": 6739,
 "sary": 6740,
 "watered": 6741,
 "concentr@@": 6742,
 "multitasking": 6743,
 "diamond": 6744,
 "squirted": 6745,
 "lighthouse": 6746,
 "t-like": 6747,
 "bomb@@": 6748,
 "and-@@": 6749,
 "anorak": 6750,
 "vio@@": 6751,
 "glancing": 6752,
 "shouts": 6753,
 "ckle": 6754,
 "hoodies": 6755,
 "sive": 6756,
 "entran@@": 6757,
 "pelo@@": 6758,
 "cy": 6759,
 "shacking": 6760,
 "cellular": 6761,
 "fit@@": 6762,
 "wns": 6763,
 "shine": 6764,
 "boutique": 6765,
 "mob": 6766,
 "ordinary": 6767,
 "marshal": 6768,
 "top-@@": 6769,
 "puzzled": 6770,
 "headdresses": 6771,
 "decked": 6772,
 "victori@@": 6773,
 "manipula@@": 6774,
 "aty@@": 6775,
 "spend": 6776,
 "saddled": 6777,
 "mainly": 6778,
 "relaxed": 6779,
 "medic": 6780,
 "ld": 6781,
 "thursday": 6782,
 "slung": 6783,
 "aint": 6784,
 "self-@@": 6785,
 "motori@@": 6786,
 "serene": 6787,
 "letting": 6788,
 "ounds": 6789,
 "converses": 6790,
 "ffin": 6791,
 "bow@@": 6792,
 "roots": 6793,
 "fying": 6794,
 "aggre@@": 6795,
 "bagpipers": 6796,
 "knol@@": 6797,
 "imitation": 6798,
 "stuff@@": 6799,
 "mac@@": 6800,
 "headfirst": 6801,
 "bulldog": 6802,
 "drum@@": 6803,
 "rocker": 6804,
 "tux": 6805,
 "watery": 6806,
 "cil": 6807,
 "ury": 6808,
 "theat@@": 6809,
 "steals": 6810,
 "houston": 6811,
 "juggle": 6812,
 "watch@@": 6813,
 "baltimore": 6814,
 "isle": 6815,
 "spirit": 6816,
 "snail": 6817,
 "maintain": 6818,
 "chipping": 6819,
 "ip@@": 6820,
 "antic@@": 6821,
 "waffle": 6822,
 "reporters": 6823,
 "important": 6824,
 "web@@": 6825,
 "secure": 6826,
 "auditioning": 6827,
 "iti@@": 6828,
 "shuffles": 6829,
 "ferris": 6830,
 "necks": 6831,
 "flexing": 6832,
 "buddhist": 6833,
 "specific": 6834,
 "struggle": 6835,
 "tread@@": 6836,
 "craf@@": 6837,
 "adjacent": 6838,
 "prin@@": 6839,
 "custody": 6840,
 "pedals": 6841,
 "clipboard": 6842,
 "selections": 6843,
 "strung": 6844,
 "sales": 6845,
 "mold": 6846,
 "pig@@": 6847,
 "handhold": 6848,
 "lam@@": 6849,
 "fours": 6850,
 "stories": 6851,
 "moun@@": 6852,
 "received": 6853,
 "tear": 6854,
 "pebbles": 6855,
 "coastline": 6856,
 "informally": 6857,
 "trails": 6858,
 "scrabble": 6859,
 "scarfs": 6860,
 "rin@@": 6861,
 "crag": 6862,
 "buck": 6863,
 "recorder": 6864,
 "simply": 6865,
 "mber": 6866,
 "zigzag": 6867,
 "grown@@": 6868,
 "wrestles": 6869,
 "sliced": 6870,
 "bridesmaid": 6871,
 "shampoo": 6872,
 "pane": 6873,
 "hurry": 6874,
 "half-@@": 6875,
 "slumped": 6876,
 "roller-blading": 6877,
 "discusses": 6878,
 "spi@@": 6879,
 "buster": 6880,
 "street-@@": 6881,
 "unlo@@": 6882,
 "bespectacled": 6883,
 "gradu@@": 6884,
 "conditi@@": 6885,
 "oncoming": 6886,
 "syn@@": 6887,
 "travelling": 6888,
 "aging": 6889,
 "mugs": 6890,
 "pods": 6891,
 "sauce": 6892,
 "collap@@": 6893,
 "explo@@": 6894,
 "bed@@": 6895,
 "submerges": 6896,
 "handbags": 6897,
 "snowstorm": 6898,
 "castro": 6899,
 "reci@@": 6900,
 "stic@@": 6901,
 "speckled": 6902,
 "gos": 6903,
 "commu@@": 6904,
 "grooms": 6905,
 "pun@@": 6906,
 "tackler": 6907,
 "coeds": 6908,
 "would": 6909,
 "aft": 6910,
 "dane": 6911,
 "ama@@": 6912,
 "residence": 6913,
 "anxiously": 6914,
 "ize": 6915,
 "gallon": 6916,
 "percussion": 6917,
 "hugged": 6918,
 "thousands": 6919,
 "chisels": 6920,
 "delivery": 6921,
 "grilled": 6922,
 "kabo@@": 6923,
 "cutoff": 6924,
 "massage": 6925,
 "burying": 6926,
 "immigration": 6927,
 "bar-b-@@": 6928,
 "learns": 6929,
 "twined": 6930,
 "incense": 6931,
 "instructors": 6932,
 "scent": 6933,
 "renov@@": 6934,
 "raw@@": 6935,
 "sely": 6936,
 "sections": 6937,
 "dirt-@@": 6938,
 "ttes": 6939,
 "faux": 6940,
 "guides": 6941,
 "circuits": 6942,
 "tests": 6943,
 "medals": 6944,
 "mer@@": 6945,
 "tongues": 6946,
 "adventure": 6947,
 "wand": 6948,
 "kish": 6949,
 "plywood": 6950,
 "cas@@": 6951,
 "hops": 6952,
 "sketch": 6953,
 "ha": 6954,
 "bust": 6955,
 "pow@@": 6956,
 "simultaneously": 6957,
 "thri@@": 6958,
 "cyclone": 6959,
 "flash": 6960,
 "questi@@": 6961,
 "bird@@": 6962,
 "executes": 6963,
 "bucked": 6964,
 "bush@@": 6965,
 "physically": 6966,
 "twins": 6967,
 "quilted": 6968,
 "couches": 6969,
 "non-@@": 6970,
 "acy": 6971,
 "ura": 6972,
 "-type": 6973,
 "chal@@": 6974,
 "screens": 6975,
 "inspectors": 6976,
 "winks": 6977,
 "containers": 6978,
 "slips": 6979,
 "visitors": 6980,
 "victim": 6981,
 "drunken": 6982,
 "rising": 6983,
 "strain@@": 6984,
 "routines": 6985,
 "delivering": 6986,
 "bottled": 6987,
 "dueling": 6988,
 "caressing": 6989,
 "formally": 6990,
 "dles": 6991,
 "stainless": 6992,
 "bands": 6993,
 "need": 6994,
 "que@@": 6995,
 "improvement": 6996,
 "sage": 6997,
 "leaped": 6998,
 "squirts": 6999,
 "cal": 7000,
 "sweets": 7001,
 "exterior": 7002,
 "vered": 7003,
 "drain": 7004,
 "cutouts": 7005,
 "bump": 7006,
 "guiding": 7007,
 "cob": 7008,
 "pizz@@": 7009,
 "locomotives": 7010,
 "cess": 7011,
 "tell": 7012,
 "hydraulic": 7013,
 "scaffolds": 7014,
 "shin@@": 7015,
 "burn": 7016,
 "tro": 7017,
 "central": 7018,
 "median": 7019,
 "repor@@": 7020,
 "labor": 7021,
 "tas@@": 7022,
 "mer": 7023,
 "devil": 7024,
 "dh@@": 7025,
 "designing": 7026,
 "vul@@": 7027,
 "contestants": 7028,
 "copy": 7029,
 "graze": 7030,
 "semi-formal": 7031,
 "punches": 7032,
 "ball@@": 7033,
 "bare-chested": 7034,
 "did": 7035,
 "goofy": 7036,
 "frilly": 7037,
 "scores": 7038,
 "rican": 7039,
 "patrolling": 7040,
 "itali@@": 7041,
 "hoping": 7042,
 "sodas": 7043,
 "igloo": 7044,
 "ran": 7045,
 "locker": 7046,
 "ice-skating": 7047,
 "marx": 7048,
 "groucho": 7049,
 "barbecu@@": 7050,
 "tau@@": 7051,
 "ga": 7052,
 "gon@@": 7053,
 "refreshments": 7054,
 "dra@@": 7055,
 "-wheeler": 7056,
 "sisters": 7057,
 "limbs": 7058,
 "bales": 7059,
 "cottage": 7060,
 "moms": 7061,
 "fal@@": 7062,
 "drawer": 7063,
 "raging": 7064,
 "snowdrift": 7065,
 "upstairs": 7066,
 "appropri@@": 7067,
 "ste": 7068,
 "sky-view": 7069,
 "snowsuits": 7070,
 "ir": 7071,
 "sou@@": 7072,
 "hatchet": 7073,
 "bits": 7074,
 "palace": 7075,
 "pap@@": 7076,
 "comforter": 7077,
 "gingerbread": 7078,
 "curbside": 7079,
 "guidebook": 7080,
 "pt": 7081,
 "secon@@": 7082,
 "circles": 7083,
 "saucer": 7084,
 "pout": 7085,
 "resem@@": 7086,
 "pajama": 7087,
 "releases": 7088,
 "ox": 7089,
 "milling": 7090,
 "glassy": 7091,
 "info": 7092,
 "tou@@": 7093,
 "silverware": 7094,
 "harvested": 7095,
 "spaghe@@": 7096,
 "falcon": 7097,
 "diagr@@": 7098,
 "exam": 7099,
 "peep": 7100,
 "lettering": 7101,
 "blinds": 7102,
 "pigs": 7103,
 "dental": 7104,
 "arm@@": 7105,
 "emb@@": 7106,
 "high@@": 7107,
 "aloud": 7108,
 "battery": 7109,
 "stake": 7110,
 "david": 7111,
 "pokemon": 7112,
 "unwraps": 7113,
 "assists": 7114,
 "crayola": 7115,
 "jam@@": 7116,
 "pamph@@": 7117,
 "eccen@@": 7118,
 "gener@@": 7119,
 "icic@@": 7120,
 "ferns": 7121,
 "sidewalks": 7122,
 "sites": 7123,
 "misty": 7124,
 "drifts": 7125,
 "rot@@": 7126,
 "goal@@": 7127,
 "seminar": 7128,
 "puma": 7129,
 "cliffs": 7130,
 "c.@@": 7131,
 "add": 7132,
 "loader": 7133,
 "tati@@": 7134,
 "aston@@": 7135,
 "grinning": 7136,
 "adole@@": 7137,
 "trac@@": 7138,
 "express": 7139,
 "adi@@": 7140,
 "ption": 7141,
 "kee@@": 7142,
 "coin-operated": 7143,
 "fairway": 7144,
 "toenails": 7145,
 "cann@@": 7146,
 "masonry": 7147,
 "bou@@": 7148,
 "orange-red": 7149,
 "coworker": 7150,
 "iling": 7151,
 "england": 7152,
 "architecture": 7153,
 "sports@@": 7154,
 "capris": 7155,
 "nee@@": 7156,
 "garter": 7157,
 "filed": 7158,
 "racks": 7159,
 "open-@@": 7160,
 "inflating": 7161,
 "incredible": 7162,
 "crushed": 7163,
 "assistance": 7164,
 "breast": 7165,
 "hulk": 7166,
 "sman": 7167,
 "lack": 7168,
 "met": 7169,
 "normal": 7170,
 "halfway": 7171,
 "eiffel": 7172,
 "warmers": 7173,
 "cess@@": 7174,
 "suc@@": 7175,
 "maker": 7176,
 "sle@@": 7177,
 "elev@@": 7178,
 "leys": 7179,
 "trol@@": 7180,
 "fil@@": 7181,
 "shined": 7182,
 "knock": 7183,
 "bares": 7184,
 "jackhammers": 7185,
 "consoles": 7186,
 "awk@@": 7187,
 "reluctant": 7188,
 "soaked": 7189,
 "brindle-@@": 7190,
 "dou@@": 7191,
 "yo@@": 7192,
 "coated": 7193,
 "twin": 7194,
 "overcast": 7195,
 "growling": 7196,
 "bel@@": 7197,
 "disco@@": 7198,
 "distracted": 7199,
 "attacked": 7200,
 "joy@@": 7201,
 "arrange": 7202,
 "harne@@": 7203,
 "bullet": 7204,
 "tain": 7205,
 "glides": 7206,
 "mr.": 7207,
 "vous": 7208,
 "washers": 7209,
 "footbal@@": 7210,
 "rette": 7211,
 "dalmati@@": 7212,
 "cork": 7213,
 "four-@@": 7214,
 "eyard": 7215,
 "wooden-@@": 7216,
 "discovering": 7217,
 "parrot": 7218,
 "pounces": 7219,
 "penguins": 7220,
 "spout": 7221,
 "handled": 7222,
 "long-@@": 7223,
 "parachutist": 7224,
 "kill": 7225,
 "function": 7226,
 "wrist": 7227,
 "sibling": 7228,
 "repelling": 7229,
 "grav@@": 7230,
 "dang@@": 7231,
 "consulting": 7232,
 "human@@": 7233,
 "vase": 7234,
 "seeing": 7235,
 "2.@@": 7236,
 "reaction": 7237,
 "refuge": 7238,
 "mirrors": 7239,
 "glances": 7240,
 "land@@": 7241,
 "caravan": 7242,
 "mountain@@": 7243,
 "based": 7244,
 "ition": 7245,
 "snorkeling": 7246,
 "chores": 7247,
 "rackets": 7248,
 "solid": 7249,
 "placid": 7250,
 "happy-@@": 7251,
 "examined": 7252,
 "traverse": 7253,
 "viewed": 7254,
 "swallowing": 7255,
 "delight": 7256,
 "congregation": 7257,
 "ing@@": 7258,
 "fier": 7259,
 "ques": 7260,
 "operate": 7261,
 "lars": 7262,
 "manner": 7263,
 "canoeing": 7264,
 "southeast": 7265,
 "beauty": 7266,
 "gating": 7267,
 "scrip@@": 7268,
 "busily": 7269,
 "pretzels": 7270,
 "metal@@": 7271,
 "loaf": 7272,
 "ey": 7273,
 "tow@@": 7274,
 "steeplechase": 7275,
 "enjo@@": 7276,
 "back-up": 7277,
 "newsca@@": 7278,
 "lows": 7279,
 "berries": 7280,
 "crack@@": 7281,
 "roller@@": 7282,
 "deflated": 7283,
 "high-heeled": 7284,
 "blo@@": 7285,
 "budwe@@": 7286,
 "ribs": 7287,
 "acrobatics": 7288,
 "tears": 7289,
 "scrubbing": 7290,
 "mallet": 7291,
 "iner": 7292,
 "answer": 7293,
 "exotic": 7294,
 "subject": 7295,
 "mushroom": 7296,
 "yment": 7297,
 "wagons": 7298,
 "diaper": 7299,
 "tty": 7300,
 "jagged": 7301,
 "then": 7302,
 "snoopy": 7303,
 "ffle": 7304,
 "stock": 7305,
 "lab@@": 7306,
 "manure": 7307,
 "izing": 7308,
 "frolic": 7309,
 "sky@@": 7310,
 "2008": 7311,
 "bei@@": 7312,
 "wondering": 7313,
 "knotted": 7314,
 "alaska": 7315,
 "journal": 7316,
 "fest": 7317,
 "patties": 7318,
 "bonding": 7319,
 "gg@@": 7320,
 "strad@@": 7321,
 "yells": 7322,
 "grin": 7323,
 "sweat": 7324,
 "golfers": 7325,
 "terminals": 7326,
 "shoot@@": 7327,
 "wands": 7328,
 "volunteer": 7329,
 "trinkets": 7330,
 "pro-@@": 7331,
 "become": 7332,
 "signi@@": 7333,
 "lors": 7334,
 "bemused": 7335,
 "wineglass": 7336,
 "seahaw@@": 7337,
 "blankly": 7338,
 "tangled": 7339,
 "pearls": 7340,
 "bandage": 7341,
 "fasten@@": 7342,
 "tilts": 7343,
 "zoo@@": 7344,
 "poin@@": 7345,
 "humans": 7346,
 "postcards": 7347,
 "seashel@@": 7348,
 "heineken": 7349,
 "preschool": 7350,
 "cashier": 7351,
 "agit@@": 7352,
 "mattresses": 7353,
 "jets": 7354,
 "pil@@": 7355,
 "campus": 7356,
 "dough@@": 7357,
 "rusted": 7358,
 "slin@@": 7359,
 "dic@@": 7360,
 "tionary": 7361,
 "wered": 7362,
 "edi@@": 7363,
 "bowties": 7364,
 "stout": 7365,
 "grind": 7366,
 "steering": 7367,
 "skim": 7368,
 "sunday": 7369,
 "plaster": 7370,
 "leashed": 7371,
 "capri": 7372,
 "lodge": 7373,
 "super": 7374,
 "polka-dotted": 7375,
 "triangle-shaped": 7376,
 "wielding": 7377,
 "bicycler": 7378,
 "zune": 7379,
 "wrangle": 7380,
 "rist": 7381,
 "packs": 7382,
 "active": 7383,
 "jousting": 7384,
 "modeling": 7385,
 "fundraiser": 7386,
 "park@@": 7387,
 "daring": 7388,
 "targets": 7389,
 "xes": 7390,
 "gue@@": 7391,
 "condi@@": 7392,
 "parks": 7393,
 "cells": 7394,
 "masterpiece": 7395,
 "possible": 7396,
 "brightly-colored": 7397,
 "samsung": 7398,
 "patchy": 7399,
 "stumbling": 7400,
 "yel@@": 7401,
 "handgun": 7402,
 "average": 7403,
 "throughout": 7404,
 "heritage": 7405,
 "bazaar": 7406,
 "ah": 7407,
 "rifles": 7408,
 "horsemen": 7409,
 "shield": 7410,
 "ached": 7411,
 "challenging": 7412,
 "specialized": 7413,
 "every@@": 7414,
 "jack-o-@@": 7415,
 "scythe": 7416,
 "crank": 7417,
 "respective": 7418,
 "treatment": 7419,
 "wells": 7420,
 "shor@@": 7421,
 "ore@@": 7422,
 "off-screen": 7423,
 "close@@": 7424,
 "detergent": 7425,
 "exercises": 7426,
 "bundles": 7427,
 "styled": 7428,
 "locomotive": 7429,
 "toting": 7430,
 "shopper": 7431,
 "nips": 7432,
 "thorugh": 7433,
 ",000": 7434,
 "melon": 7435,
 "backpack@@": 7436,
 "curiously": 7437,
 "outs": 7438,
 "fetches": 7439,
 "twos": 7440,
 "colli@@": 7441,
 "inte@@": 7442,
 "mon": 7443,
 "concession": 7444,
 "toll": 7445,
 "questions": 7446,
 "pp@@": 7447,
 "natives": 7448,
 "dul@@": 7449,
 "pitbull": 7450,
 "multi-color": 7451,
 "stem": 7452,
 "miners": 7453,
 "wildfire": 7454,
 "frantically": 7455,
 "participant": 7456,
 "scrapping": 7457,
 "windsurfer": 7458,
 "hun@@": 7459,
 "oddly": 7460,
 "burrit@@": 7461,
 "gir@@": 7462,
 "lettuce": 7463,
 "confu@@": 7464,
 "shrine": 7465,
 "sews": 7466,
 "attentive": 7467,
 "lovers": 7468,
 "thomas": 7469,
 "internet": 7470,
 "frothy": 7471,
 "soa@@": 7472,
 "sweatpants": 7473,
 "swee@@": 7474,
 "writ@@": 7475,
 "spark@@": 7476,
 "owl": 7477,
 "voc@@": 7478,
 "wise": 7479,
 "entertainers": 7480,
 "ot": 7481,
 "streamers": 7482,
 "type@@": 7483,
 "cracked": 7484,
 "scruffy": 7485,
 "occasion": 7486,
 "writer": 7487,
 "ug@@": 7488,
 "clo@@": 7489,
 "eng@@": 7490,
 "district": 7491,
 "brace": 7492,
 "refriger@@": 7493,
 "tting": 7494,
 "caged": 7495,
 "depicted": 7496,
 "turkeys": 7497,
 "household": 7498,
 "water@@": 7499,
 "backing": 7500,
 "stricken": 7501,
 "colourful": 7502,
 "water-@@": 7503,
 "sks": 7504,
 "sn@@": 7505,
 "gypsy": 7506,
 "groom@@": 7507,
 "windowsill": 7508,
 "sil@@": 7509,
 "ffs": 7510,
 "horizontal": 7511,
 "hungry": 7512,
 "attack": 7513,
 "sy": 7514,
 "popsicle": 7515,
 "blues": 7516,
 "wants": 7517,
 "changing": 7518,
 "feels": 7519,
 "dame": 7520,
 "masses": 7521,
 "dappled": 7522,
 "suspect": 7523,
 "turn@@": 7524,
 "pour": 7525,
 "bored": 7526,
 "region": 7527,
 "loudspeaker": 7528,
 "irons": 7529,
 "mime": 7530,
 "matches": 7531,
 "innoc@@": 7532,
 "one-man": 7533,
 "vw": 7534,
 "notre": 7535,
 "smelling": 7536,
 "sist": 7537,
 "angeles": 7538,
 "go-kart": 7539,
 "instructions": 7540,
 "egg@@": 7541,
 "motions": 7542,
 "researchers": 7543,
 "brick-@@": 7544,
 "started": 7545,
 "fire@@": 7546,
 "ampu@@": 7547,
 "adven@@": 7548,
 "alcoholic": 7549,
 "segway": 7550,
 "shipping": 7551,
 "obstruc@@": 7552,
 "likes": 7553,
 "maracas": 7554,
 "common": 7555,
 "bills": 7556,
 "swin@@": 7557,
 "tambourines": 7558,
 "trading": 7559,
 "sausage": 7560,
 "swerves": 7561,
 "cartons": 7562,
 "spare": 7563,
 "hog": 7564,
 "zards": 7565,
 "crow": 7566,
 "creature": 7567,
 "repe@@": 7568,
 "blank": 7569,
 "prepping": 7570,
 "chri@@": 7571,
 "sesame": 7572,
 "slow": 7573,
 "gol@@": 7574,
 "whatever": 7575,
 "describing": 7576,
 "hitter": 7577,
 "rinsing": 7578,
 "pressed": 7579,
 "alling": 7580,
 "enth@@": 7581,
 "cyc@@": 7582,
 "dio": 7583,
 "roller-@@": 7584,
 "ladd@@": 7585,
 "trin@@": 7586,
 "manic@@": 7587,
 "prope@@": 7588,
 "obstac@@": 7589,
 "ols": 7590,
 "athle@@": 7591,
 "wri@@": 7592,
 "handr@@": 7593,
 "cow@@": 7594,
 "kar@@": 7595,
 "tant": 7596,
 "eag@@": 7597,
 "scri@@": 7598,
 "laun@@": 7599,
 "reli@@": 7600,
 "rela@@": 7601,
 "pover@@": 7602,
 "lee@@": 7603,
 "ague": 7604,
 "quar@@": 7605,
 "dle": 7606,
 "thro@@": 7607,
 "flee@@": 7608,
 "amble": 7609,
 "restaur@@": 7610,
 "hispan@@": 7611,
 "kie": 7612,
 "box@@": 7613,
 "credi@@": 7614,
 "ums": 7615,
 "offe@@": 7616,
 "end@@": 7617,
 "bron@@": 7618,
 "garden@@": 7619,
 "paint@@": 7620,
 "wning": 7621,
 "colle@@": 7622,
 "yor@@": 7623,
 "race@@": 7624,
 "hen@@": 7625,
 "business@@": 7626,
 "pal@@": 7627,
 "cauc@@": 7628,
 "binocu@@": 7629,
 "ame": 7630,
 "cau@@": 7631,
 "ister": 7632,
 "sha@@": 7633,
 "yway": 7634,
 "gam@@": 7635,
 "entr@@": 7636,
 "bear@@": 7637,
 "ically": 7638,
 "ori@@": 7639,
 "leas@@": 7640,
 "incredi@@": 7641,
 "stra@@": 7642,
 "cep@@": 7643,
 "plum@@": 7644,
 "synchroni@@": 7645,
 "clip@@": 7646,
 "wiel@@": 7647,
 "jun@@": 7648,
 "horse@@": 7649,
 "concre@@": 7650,
 "umb": 7651,
 "skil@@": 7652,
 "vement": 7653,
 "docu@@": 7654,
 "ash": 7655,
 "ak@@": 7656,
 "let@@": 7657,
 "too@@": 7658,
 "police@@": 7659,
 "gency": 7660,
 "$": 7661,
 "insec@@": 7662,
 "ere": 7663,
 "fortun@@": 7664,
 "brun@@": 7665,
 "oul@@": 7666,
 "xe": 7667,
 "contor@@": 7668,
 "graphi@@": 7669,
 "=": 7670,
 "ram@@": 7671,
 "pol@@": 7672,
 "bum": 7673,
 "breast@@": 7674,
 "handkerchie@@": 7675,
 "ashed": 7676,
 "contain@@": 7677,
 "clar@@": 7678,
 "mag@@": 7679,
 "neck@@": 7680,
 "wn": 7681,
 "technic@@": 7682,
 "ians": 7683,
 "bus@@": 7684,
 "kerchie@@": 7685,
 "conver@@": 7686,
 "ape": 7687,
 "wheel@@": 7688,
 "contem@@": 7689,
 "afe": 7690,
 "bub@@": 7691,
 "cool@@": 7692,
 "nas": 7693,
 "cover@@": 7694,
 "javel@@": 7695,
 "progr@@": 7696,
 "cles": 7697,
 "popsi@@": 7698,
 "tree-@@": 7699,
 "stock@@": 7700,
 "old-@@": 7701,
 "bicyc@@": 7702,
 "teen@@": 7703,
 "tered": 7704,
 "igh@@": 7705,
 "harmon@@": 7706,
 "advan@@": 7707,
 "ggers": 7708,
 "leng@@": 7709,
 "lay@@": 7710,
 "ese": 7711,
 "ninj@@": 7712,
 "spee@@": 7713,
 "russi@@": 7714,
 "vie@@": 7715,
 "stant": 7716,
 "gli@@": 7717,
 "must@@": 7718,
 "swor@@": 7719,
 "ro": 7720,
 "self": 7721,
 "arly": 7722,
 "skim@@": 7723,
 "ase": 7724,
 "iden@@": 7725,
 "fabri@@": 7726,
 "ica": 7727,
 "jack@@": 7728,
 "horizon@@": 7729,
 "graph@@": 7730,
 "famil@@": 7731,
 "pics": 7732,
 "uni@@": 7733,
 "gla@@": 7734,
 "ym@@": 7735,
 "cob@@": 7736,
 "spra@@": 7737,
 "well-@@": 7738,
 "isu@@": 7739,
 "concer@@": 7740,
 "eful": 7741,
 "ty@@": 7742,
 "minne@@": 7743,
 "fou@@": 7744,
 "erly": 7745,
 "ko@@": 7746,
 "heel": 7747,
 "jewel@@": 7748,
 "mes": 7749,
 "electri@@": 7750,
 "wea@@": 7751,
 "fc": 7752,
 "ous@@": 7753,
 "exc@@": 7754,
 "mering": 7755,
 "national": 7756,
 "by@@": 7757,
 "lif@@": 7758,
 "swer@@": 7759,
 "outfiel@@": 7760,
 "ish@@": 7761,
 "ywood": 7762,
 "establ@@": 7763,
 "scoo@@": 7764,
 "rese@@": 7765,
 "cree@@": 7766,
 "ox@@": 7767,
 "cker": 7768,
 "dish@@": 7769,
 "graffiti@@": 7770,
 "chin@@": 7771,
 "sear@@": 7772,
 "path@@": 7773,
 "craw@@": 7774,
 "ited": 7775,
 "competit@@": 7776,
 "iting": 7777,
 "inging": 7778,
 "whe@@": 7779,
 "vel": 7780,
 "ethnic@@": 7781,
 "clou@@": 7782,
 "desser@@": 7783,
 "cally": 7784,
 "cheer@@": 7785,
 "snork@@": 7786,
 "tment": 7787,
 "journ@@": 7788,
 "musi@@": 7789,
 "b-@@": 7790,
 "-american": 7791,
 "bill@@": 7792,
 "clarin@@": 7793,
 "seamstre@@": 7794,
 "ipating": 7795,
 "visit@@": 7796,
 "xiously": 7797,
 "nt": 7798,
 "tight@@": 7799,
 "liqu@@": 7800,
 "instal@@": 7801,
 "bea@@": 7802,
 "vege@@": 7803,
 "reluc@@": 7804,
 "zi@@": 7805,
 "haw@@": 7806,
 "flat@@": 7807,
 "equip@@": 7808,
 "ja@@": 7809,
 "dex": 7810,
 "ids": 7811,
 "river@@": 7812,
 "jer@@": 7813,
 "cir@@": 7814,
 "ea@@": 7815,
 "peb@@": 7816,
 "za": 7817,
 "pers@@": 7818,
 "erry": 7819,
 "press@@": 7820,
 "maj@@": 7821,
 "convers@@": 7822,
 "mc@@": 7823,
 "suspen@@": 7824,
 "tun@@": 7825,
 "scopes": 7826,
 "ouse": 7827,
 "utensi@@": 7828,
 "liner": 7829,
 "sity": 7830,
 "cam@@": 7831,
 "cad@@": 7832,
 "ft": 7833,
 "stron@@": 7834,
 "tators": 7835,
 "sof@@": 7836,
 "cran@@": 7837,
 "itch": 7838,
 "ef@@": 7839,
 "waff@@": 7840,
 "golf@@": 7841,
 "fts": 7842,
 "ndy": 7843,
 "qui@@": 7844,
 "donal@@": 7845,
 "girl@@": 7846,
 "beater": 7847,
 "stac@@": 7848,
 "multi-@@": 7849,
 "somb@@": 7850,
 "ishment": 7851,
 "ze@@": 7852,
 "walk@@": 7853,
 "scru@@": 7854,
 "ards": 7855,
 "popula@@": 7856,
 "discu@@": 7857,
 "base@@": 7858,
 "are@@": 7859,
 "quarter@@": 7860,
 "brie@@": 7861,
 "itting": 7862,
 "on-@@": 7863,
 "rece@@": 7864,
 "exer@@": 7865,
 "rollers": 7866,
 "ginger@@": 7867,
 "nic": 7868,
 "hudd@@": 7869,
 "abil@@": 7870,
 "metro@@": 7871,
 "itter": 7872,
 "pelic@@": 7873,
 "vil@@": 7874,
 "tory": 7875,
 "bby": 7876,
 "ssive": 7877,
 "ina": 7878,
 "inju@@": 7879,
 "transpor@@": 7880,
 "ors": 7881,
 "bulldo@@": 7882,
 "iors": 7883,
 "hill@@": 7884,
 "kly": 7885,
 "sleeved": 7886,
 "respec@@": 7887,
 "pharmac@@": 7888,
 "dachshun@@": 7889,
 "her@@": 7890,
 "selec@@": 7891,
 "mono@@": 7892,
 "ket": 7893,
 "wheelbar@@": 7894,
 "ssor": 7895,
 "arch@@": 7896,
 "pop@@": 7897,
 "cathedr@@": 7898,
 "curren@@": 7899,
 "itation": 7900,
 "asi@@": 7901,
 "ions": 7902,
 "rail@@": 7903,
 "surf@@": 7904,
 "shing@@": 7905,
 "sam@@": 7906,
 "chalk@@": 7907,
 "verse": 7908,
 "straw@@": 7909,
 "symbo@@": 7910,
 "sso@@": 7911,
 "climb@@": 7912,
 "obser@@": 7913,
 "mess@@": 7914,
 "wait@@": 7915,
 "ber": 7916,
 "atory": 7917,
 "came@@": 7918,
 "kel": 7919,
 "histori@@": 7920,
 "acrob@@": 7921,
 "sno@@": 7922,
 "unidentifi@@": 7923,
 "hula-@@": 7924,
 "rit@@": 7925,
 "butch@@": 7926,
 "coa@@": 7927,
 "rence": 7928,
 "flec@@": 7929,
 "eless": 7930,
 "dam@@": 7931,
 "with@@": 7932,
 "strac@@": 7933,
 "tel@@": 7934,
 "mod@@": 7935,
 "prised": 7936,
 "ount": 7937,
 "diffe@@": 7938,
 "attered": 7939,
 "butt@@": 7940,
 "arrange@@": 7941,
 "tial": 7942,
 "won": 7943,
 "s.": 7944,
 "warri@@": 7945,
 "off@@": 7946,
 "paci@@": 7947,
 "ggles": 7948,
 "roni@@": 7949,
 "scape": 7950,
 "peri@@": 7951,
 "mechan@@": 7952,
 "sy@@": 7953,
 "browni@@": 7954,
 "brac@@": 7955,
 "lared": 7956,
 "lish": 7957,
 "admi@@": 7958,
 "snea@@": 7959,
 "attrac@@": 7960,
 "book@@": 7961,
 "cuto@@": 7962,
 "dgers": 7963,
 "red@@": 7964,
 "cig@@": 7965,
 "alls": 7966,
 "una": 7967,
 "hitch@@": 7968,
 "preven@@": 7969,
 "vid@@": 7970,
 "sunba@@": 7971,
 "gallo@@": 7972,
 "accordi@@": 7973,
 "refu@@": 7974,
 "enti@@": 7975,
 "tti@@": 7976,
 "label@@": 7977,
 "aver@@": 7978,
 "fen@@": 7979,
 "age@@": 7980,
 "chop@@": 7981,
 "boo": 7982,
 "again@@": 7983,
 "est": 7984,
 "quo@@": 7985,
 "lem@@": 7986,
 "ligh@@": 7987,
 "seren@@": 7988,
 "ack@@": 7989,
 "dd@@": 7990,
 "aqu@@": 7991,
 "doo@@": 7992,
 "ults": 7993,
 "ude": 7994,
 "solit@@": 7995,
 "spa@@": 7996,
 "oed": 7997,
 "rent": 7998,
 "fier@@": 7999,
 "ck-@@": 8000,
 "ree": 8001,
 "secu@@": 8002,
 "aming": 8003,
 "rely": 8004,
 "tural": 8005,
 "scraper": 8006,
 "flu@@": 8007,
 "tained": 8008,
 "prac@@": 8009,
 "bag@@": 8010,
 "bathro@@": 8011,
 "glit@@": 8012,
 "slic@@": 8013,
 "mic@@": 8014,
 "publ@@": 8015,
 "colo@@": 8016,
 "braz@@": 8017,
 "wling": 8018,
 "thi@@": 8019,
 "mail@@": 8020,
 "gin": 8021,
 "trou@@": 8022,
 "irt": 8023,
 "motorc@@": 8024,
 "scor@@": 8025,
 "silhoue@@": 8026,
 "flambo@@": 8027,
 "large@@": 8028,
 "dino@@": 8029,
 "sque@@": 8030,
 "ong@@": 8031,
 "prep@@": 8032,
 "home@@": 8033,
 "kin@@": 8034,
 "impre@@": 8035,
 "inclu@@": 8036,
 "eas@@": 8037,
 "ump": 8038,
 "tens": 8039,
 "kit@@": 8040,
 "transform@@": 8041,
 "ound@@": 8042,
 "py@@": 8043,
 "xylo@@": 8044,
 "patri@@": 8045,
 "pitch@@": 8046,
 "screw@@": 8047,
 "arabi@@": 8048,
 "thered": 8049,
 "chy": 8050,
 "snowfla@@": 8051,
 "skate@@": 8052,
 "tric": 8053,
 "ast": 8054,
 "tooth@@": 8055,
 "ial": 8056,
 "gra@@": 8057,
 "smith": 8058,
 "lock@@": 8059,
 "camp@@": 8060,
 "eze": 8061,
 "fighters": 8062,
 "appe@@": 8063,
 "ulting": 8064,
 "slum@@": 8065,
 "skele@@": 8066,
 "ton@@": 8067,
 "alle@@": 8068,
 "hou@@": 8069,
 "rs": 8070,
 "pian@@": 8071,
 "ming@@": 8072,
 "scar@@": 8073,
 "ssue": 8074,
 "sne@@": 8075,
 "tur@@": 8076,
 "cup@@": 8077,
 "inf@@": 8078,
 "budd@@": 8079,
 "rest@@": 8080,
 "onable": 8081,
 "young@@": 8082,
 "window@@": 8083,
 "cases": 8084,
 "bal": 8085,
 "sna@@": 8086,
 "tation": 8087,
 "adm@@": 8088,
 "nur@@": 8089,
 "bon@@": 8090,
 "nav@@": 8091,
 "lo": 8092,
 "day@@": 8093,
 "lum@@": 8094,
 "laces": 8095,
 "dered": 8096,
 "wrest@@": 8097,
 "terior": 8098,
 "stro": 8099,
 "appla@@": 8100,
 "sociali@@": 8101,
 "ials": 8102,
 "bikin@@": 8103,
 "sheep@@": 8104,
 "ghts": 8105,
 "forms": 8106,
 "busine@@": 8107,
 "flan@@": 8108,
 "star@@": 8109,
 "guit@@": 8110,
 "split@@": 8111,
 "twi@@": 8112,
 "acher": 8113,
 "luc@@": 8114,
 "backp@@": 8115,
 "ipes": 8116,
 "ggy": 8117,
 "ckled": 8118,
 "ima@@": 8119,
 "snar@@": 8120,
 "sombre@@": 8121,
 "ct": 8122,
 "stru@@": 8123,
 "prun@@": 8124,
 "flash@@": 8125,
 "95@@": 8126,
 "monit@@": 8127,
 "cabin@@": 8128,
 "mit@@": 8129,
 "memb@@": 8130,
 "ec@@": 8131,
 "bath@@": 8132,
 "08": 8133,
 "sk": 8134,
 "saf@@": 8135,
 "ssel": 8136,
 "fet@@": 8137,
 "zzy": 8138,
 "univer@@": 8139,
 "footed": 8140,
 "od@@": 8141,
 "ctor": 8142,
 "ca": 8143,
 "kings": 8144,
 "decker": 8145,
 "thumb@@": 8146,
 "kid@@": 8147,
 "pensive": 8148,
 "comple@@": 8149,
 "aban@@": 8150,
 "stered": 8151,
 "ctic": 8152,
 "apho@@": 8153,
 "sax@@": 8154,
 "butter@@": 8155,
 "taining": 8156,
 "salu@@": 8157,
 "lasso@@": 8158,
 "laugh@@": 8159,
 "accep@@": 8160,
 "dder": 8161,
 "dor@@": 8162,
 "ut": 8163,
 "ains": 8164,
 "dresser": 8165,
 "tenn@@": 8166,
 "gging": 8167,
 "wn@@": 8168,
 "maid": 8169,
 "reg@@": 8170,
 "pos@@": 8171,
 "cket": 8172,
 "mal@@": 8173,
 "nic@@": 8174,
 "tang@@": 8175,
 "yant": 8176,
 "ident": 8177,
 "festi@@": 8178,
 "obl@@": 8179,
 "eat@@": 8180,
 "itten": 8181,
 "rung": 8182,
 "reen@@": 8183,
 "bump@@": 8184,
 "outf@@": 8185,
 "itted": 8186,
 "gl@@": 8187,
 "latin@@": 8188,
 "heav@@": 8189,
 "emer@@": 8190,
 "stream@@": 8191,
 "squee@@": 8192,
 "prim@@": 8193,
 "nu@@": 8194,
 "den-@@": 8195,
 "aids": 8196,
 "sa": 8197,
 "mush@@": 8198,
 "arran@@": 8199,
 "power@@": 8200,
 "raf@@": 8201,
 "turt@@": 8202,
 "surroun@@": 8203,
 "aded": 8204,
 "barric@@": 8205,
 "indu@@": 8206,
 "ulp@@": 8207,
 "rit": 8208,
 "sym@@": 8209,
 "stor@@": 8210,
 "ware": 8211,
 "door@@": 8212,
 "ens": 8213,
 "deal@@": 8214,
 "clas@@": 8215,
 "passion@@": 8216,
 "d-in": 8217,
 "rol": 8218,
 "sus": 8219,
 "tori@@": 8220,
 "blind@@": 8221,
 "dalm@@": 8222,
 "execu@@": 8223,
 "swoo@@": 8224,
 "fra@@": 8225,
 "labra@@": 8226,
 "dor": 8227,
 "ph@@": 8228,
 "otic": 8229,
 "centr@@": 8230,
 "conte@@": 8231,
 "mpor@@": 8232,
 "shier": 8233,
 "fig@@": 8234,
 "ena": 8235,
 "sca@@": 8236,
 "euro@@": 8237,
 "ough": 8238,
 "gular": 8239,
 "oid": 8240,
 "hula@@": 8241,
 "approxim@@": 8242,
 "riz@@": 8243,
 "speciali@@": 8244,
 "sala@@": 8245,
 "frin@@": 8246,
 "&apos;@@": 8247,
 "del": 8248,
 "geish@@": 8249,
 "loc@@": 8250,
 "our@@": 8251,
 "stree@@": 8252,
 "pou@@": 8253,
 "tresses": 8254,
 "mage": 8255,
 "lla": 8256,
 "volunte@@": 8257,
 "appar@@": 8258,
 "ently": 8259,
 "expre@@": 8260,
 "gro@@": 8261,
 "rubbing": 8262,
 "yar@@": 8263,
 "spon@@": 8264,
 "eu@@": 8265,
 "ban": 8266,
 "asm": 8267,
 "ite@@": 8268,
 "pati@@": 8269,
 "stom@@": 8270,
 "certi@@": 8271,
 "pres@@": 8272,
 "borne": 8273,
 "dump@@": 8274,
 "violin@@": 8275,
 "congre@@": 8276,
 "nan@@": 8277,
 "roll@@": 8278,
 "towe@@": 8279,
 "attle": 8280,
 "expan@@": 8281,
 "visi@@": 8282,
 "magni@@": 8283,
 "waterpro@@": 8284,
 "ben@@": 8285,
 "ghtly": 8286,
 "gin@@": 8287,
 "ble-@@": 8288,
 "stants": 8289,
 "pod": 8290,
 "delic@@": 8291,
 "ate@@": 8292,
 "sel": 8293,
 "urin@@": 8294,
 "baske@@": 8295,
 "eds": 8296,
 "of@@": 8297,
 "pav@@": 8298,
 "enthusia@@": 8299,
 "chemi@@": 8300,
 "lit@@": 8301,
 "dai@@": 8302,
 "unic@@": 8303,
 "gton": 8304,
 "pad@@": 8305,
 "ination": 8306,
 "cer": 8307,
 "ened": 8308,
 "apes": 8309,
 "envi@@": 8310,
 "7@@": 8311,
 "wat@@": 8312,
 "deter@@": 8313,
 "sad@@": 8314,
 "work@@": 8315,
 "brin@@": 8316,
 "ycles": 8317,
 "emp@@": 8318,
 "oc@@": 8319,
 "ide": 8320,
 "stal@@": 8321,
 "barre@@": 8322,
 "figur@@": 8323,
 "medi@@": 8324,
 "brown@@": 8325,
 "tric@@": 8326,
 "ain@@": 8327,
 "train@@": 8328,
 "ath": 8329,
 "archaeolo@@": 8330,
 "handle@@": 8331,
 "posse@@": 8332,
 "suppor@@": 8333,
 "capped": 8334,
 "adju@@": 8335,
 "opin@@": 8336,
 "moo@@": 8337,
 "carou@@": 8338,
 "mur@@": 8339,
 "lemon@@": 8340,
 "titude": 8341,
 "ghter": 8342,
 "bene@@": 8343,
 "util@@": 8344,
 "hawai@@": 8345,
 "ricksha@@": 8346,
 "mustan@@": 8347,
 "ice@@": 8348,
 "orn@@": 8349,
 "quet": 8350,
 "pic": 8351,
 "after@@": 8352,
 "nor": 8353,
 "tice": 8354,
 "produ@@": 8355,
 "foli@@": 8356,
 "ok@@": 8357,
 "das": 8358,
 "tai@@": 8359,
 "sque": 8360,
 "tti": 8361,
 "stures": 8362,
 "adverti@@": 8363,
 "ascen@@": 8364,
 "u.@@": 8365,
 "simultane@@": 8366,
 "gover@@": 8367,
 "stoo@@": 8368,
 "cloth@@": 8369,
 "tus": 8370,
 "doned": 8371,
 "pursu@@": 8372,
 "ado@@": 8373,
 "0@@": 8374,
 "ank": 8375,
 "pard": 8376,
 "tical": 8377,
 "sand@@": 8378,
 "furn@@": 8379,
 "kin": 8380,
 "mani@@": 8381,
 "cont@@": 8382,
 "flops": 8383,
 "ner": 8384,
 "sour@@": 8385,
 "plains": 8386,
 "counter@@": 8387,
 "lama": 8388,
 "descri@@": 8389,
 "goof@@": 8390,
 "bies": 8391,
 "rying": 8392,
 "es@@": 8393,
 "pra@@": 8394,
 "carpen@@": 8395,
 "pho@@": 8396,
 "cke@@": 8397,
 "name@@": 8398,
 "distri@@": 8399,
 "tiv@@": 8400,
 "mot@@": 8401,
 "woo@@": 8402,
 "tz@@": 8403,
 "ral": 8404,
 "apar@@": 8405,
 "toon": 8406,
 "ddle": 8407,
 "graffit@@": 8408,
 "ever@@": 8409,
 "swim@@": 8410,
 "oran@@": 8411,
 "uts": 8412,
 "toen@@": 8413,
 "tup": 8414,
 "gers": 8415,
 "rot": 8416,
 "ffles": 8417,
 "dram@@": 8418,
 "dan": 8419,
 "tch": 8420,
 "inner@@": 8421,
 "rai@@": 8422,
 "ta": 8423,
 "lic": 8424,
 "mo": 8425,
 "hard-@@": 8426,
 "gent": 8427,
 "kart": 8428,
 "maneu@@": 8429,
 "surge@@": 8430,
 "pir@@": 8431,
 "yst@@": 8432,
 "xim@@": 8433,
 "moss@@": 8434,
 "tack@@": 8435,
 "countr@@": 8436,
 "won@@": 8437,
 "ay@@": 8438,
 "chas@@": 8439,
 "smoo@@": 8440,
 "dia@@": 8441,
 "atched": 8442,
 "sum@@": 8443,
 "wake@@": 8444,
 "medit@@": 8445,
 "ies": 8446,
 "drift": 8447,
 "ith": 8448,
 "contro@@": 8449,
 "tist": 8450,
 "ach": 8451,
 "att@@": 8452,
 "hosp@@": 8453,
 "wl": 8454,
 "guar@@": 8455,
 "house@@": 8456,
 "brow@@": 8457,
 "orna@@": 8458,
 "tially": 8459,
 "ner@@": 8460,
 "pain@@": 8461,
 "yo": 8462,
 "ret": 8463,
 "igh": 8464,
 "sser@@": 8465,
 "perform@@": 8466,
 "shampo@@": 8467,
 "shep@@": 8468,
 "recor@@": 8469,
 "vac@@": 8470,
 "ati@@": 8471,
 "dre@@": 8472,
 "school@@": 8473,
 "phan@@": 8474,
 "apers": 8475,
 "tomat@@": 8476,
 "q@@": 8477,
 "flin@@": 8478,
 "cock@@": 8479,
 "situ@@": 8480,
 "numer@@": 8481,
 "silver@@": 8482,
 "aching": 8483,
 "opp@@": 8484,
 "soon@@": 8485,
 "blow@@": 8486,
 "jump@@": 8487,
 "attemp@@": 8488,
 "thre@@": 8489,
 "blin@@": 8490,
 "helme@@": 8491,
 "veter@@": 8492,
 "milit@@": 8493,
 "jugg@@": 8494,
 "construc@@": 8495,
 "lead@@": 8496,
 "stati@@": 8497,
 "lli@@": 8498,
 "chie@@": 8499,
 "fs": 8500,
 "recei@@": 8501,
 "nati@@": 8502,
 "happ@@": 8503,
 "tt": 8504,
 "heeled": 8505,
 "stically": 8506
}