<unk>
<s>
</s>
ction
blacktop
donkeys
mannequin
magazines
among
sides
xylophone
leaped
ninja
&apos;s
marks
wakeboards
thumb
yst@@
ere
flec@@
clown
rounds
face
waits
spinner
walkway
arms
complete
gym
mur@@
float
peruses
public
snowboarders
door@@
tment
worshi@@
ninj@@
steam
turn@@
sauna
ing@@
homeless
streamers
microscope
baker
flood
wonder@@
kneel
calm
lock@@
z@@
blooming
scen@@
substance
proud
dessert
wool
apped
goat
monks
les
speaking
panel
pretends
pretend
huddling
visi@@
rainy
salesman
been
adobe
olympians
streetlight
towel
upside-down
structures
wife-beater
bunch
cone
fork
mold
medic
cup
experien@@
thre@@
tied
-@@
circuits
thought
stically
id@@
sist
urin@@
vs
clustered
xim@@
silhouetted
france
speaker
place
apart
river@@
skydiving
zzy
foliage
coach
work@@
rocks
cradles
:
listening
year
wagons
facial
marathon
5@@
feet
decor@@
vests
princess
sew
addresses
rooftop
crutches
feeds
ph@@
lowered
paper
battle
fish
joggers
stoo@@
licking
converses
play
coats
preven@@
golf@@
ical
mono@@
thro@@
iling
sales
sour@@
archaeologists
scan
ulting
underneath
oed
lovers
armed
mid@@
strolls
scales
ob@@
assembly
grandmother
assorted
barker
bloom
cl@@
elaborately
lines
ax
intricate
punch
exercising
opp@@
grandfather
reacting
buster
bea@@
bel@@
operate
stru@@
wineglass
instructing
mariachi
pedal
scythe
dancers
sam@@
vendors
cess@@
caravan
ire
tree-lined
wning
following
returning
fit@@
lounges
casts
coconuts
consults
women
wiel@@
kick@@
suds
homes
athletic
sleeves
f@@
dering
waterskiing
poncho
takes
steel
slam
repor@@
spec@@
grooms
battery
cafeteria
blow@@
mat
pierced
ancient
stat@@
bra
ption
bring
ave
ster
brick-paved
row@@
ak@@
monk
cones
index
official
think
rying
na@@
male
pelican
mani@@
fli@@
free@@
toting
camels
lled
ounds
utensils
unique
confu@@
mar@@
pearls
trick
brown
digger
frustrated
river
flat
spo@@
mountain@@
border
snap
paddle
famil@@
gar@@
contin@@
entering
pro@@
base@@
theme
splits
removed
ash
exotic
player
satchel
fighters
roll@@
telling
flexing
twirls
tool
where
by@@
usa
pic
mountaintop
six
ts
lime
spare
et
arrange@@
sisters
at
que
patriotic
hauling
register
memb@@
subway
sat
knitting
sticks
climb@@
pri@@
site
fashion
babies
fruits
donations
flannel
to
stepping
brochure
crawls
pie
forms
laps
sleepy
spots
rowing
perform
tackling
motorboat
such
alli@@
cyclists
barricade
pond
fortune
ash@@
whilst
speckled
apparel
least
sque@@
aired
waking
fuzzy
jects
lifting
pick
waiting
skull
diving
hou@@
kissing
lead
mon
spending
snea@@
motions
customers
youngsters
tty
camps
played
price
redheaded
islamic
ry-@@
lay
respectively
irritated
stuff
italy
soldier
padding
sauce
bes
partly
provi@@
ssel
ymca
stati@@
examines
somersault
beverage
pop@@
du
fet@@
ble@@
batons
postcards
sing
vice
sandal
las
smokes
anti@@
barrels
restaur@@
assembled
fi@@
sneakers
market
object
car
penguins
stone-@@
sketch
cement
fur
crowns
crazy
ad
focus
bikes
born
crops
underwater
headdresses
dding
scar@@
stare
possibly
excitement
back-up
acher
horse@@
promoting
kelp
roll
time
passengers
jersey
dark
orchestra
tent
popula@@
engine
acting
floats
off-white
bank
ball
book
ves
glass
tickets
posters
li@@
rake
aiming
artwork
fat
ef@@
cage
glacier
residential
slan@@
handicapped
windsurfer
keys
bre@@
intently
churning
crayola
law
duck
lack
parachutist
candlelight
brindle
ox
itation
arena
slightly
stor@@
serious
hil@@
marching
opposite
kiss
sh
bum
accident
paddles
alty
pharmacy
interviewed
parallel
dog
orange
95@@
observing
jer@@
can@@
ssive
dancing
soaking
skiing
likely
meals
herd
mothers
tou@@
japanese
wheelchairs
flat@@
kitty
bucking
trading
shoveling
ys
pours
handed
bent
tightly
free
oklahoma
upturned
cigarettes
coming
vest
fabri@@
sco@@
necklaces
attacking
lakers
jets
half-@@
beams
mustard
before
y-@@
cheese
breast@@
waterfalls
backed
frog
oxford
zooms
trashcan
james
powered
tal
ped@@
mingle
outdoor
amid
cemetery
leafy
one@@
tow
strollers
dental
hotdog
exposing
carefully
headscarves
forehand
pastor
aches
col@@
marked
removing
a
um@@
yed
volunteers
test
pets
cad@@
tters
ripped
expec@@
duffel
dang@@
stove
photo@@
bul@@
compete
robot
asphalt
-
tour
giant
patiently
driving
rent
sad@@
lands
der
12
ladle
brin@@
flaps
ch@@
ha@@
d-@@
hairnet
sausages
ddle
device
carcas@@
accompanied
platter
hun@@
photographers
vast
pineapples
cultural
ants
contains
someones
silly
bears
actions
bath@@
scuba
left-handed
parachutes
hidden
tted
chalk@@
lasso
safety
&amp;
rope
blacksmith
stone
gg@@
sar@@
buoy
bodies
fre@@
bins
cute
bene@@
searching
w
sound
barbecu@@
stream@@
smo@@
stained
im
era
ticket
rows
her@@
laboratory
pursued
aprons
scraper
eat
thinking
ethnic@@
dozens
boar@@
dress
from
bulldozer
aloud
earring
each
wood
leg
graph@@
once
die@@
overcast
ei@@
swings
transpor@@
cooler
videotaping
entran@@
yoga
receive
persons
ro
tively
roadway
crouched
roller-@@
smoo@@
bicyclists
heav@@
sparse
which
sus
pushed
sheepdog
striped
responding
plains
striking
bordering
cuts
latino
letting
ambulance
headband
abil@@
amic
type@@
exterior
them
hide
clicking
hats
texas
dough
fenced
came
features
wineglasses
you
sity
dly
hen@@
topless
torch
ague
chisels
farm@@
tic@@
picker
briefs
fun@@
ges
overlooks
kish
courtyard
bush@@
baseman
sprays
carpeted
orders
gaze
baske@@
stomach@@
real
anxiously
inging
african-american
mon@@
taught
chested
spray
store
rung
rather
three
tz@@
underside
delight
clarinet
stuffed
nature
tells
appear
ware
foli@@
uniformed
groups
arabic
volleyball
greyhounds
loom
py
blackboard
cann@@
q
tuxedos
hin@@
file
envi@@
sprin@@
dribbling
skating
mc@@
rollerskates
nice
ski
row
ach
aluminum
notes
tap
balding
braid
mechanical
vous
capris
leash
7@@
grandparents
specialized
cyclone
rink
nav@@
individuals
grain
grimac@@
perfum@@
upper-class
seal
direction
received
drenched
bay
level
para@@
hard-hat
demonstration
task
perched
n@@
branches
waring
siding
khaki
rimmed
scaling
motorbike
positioned
beige
bowling
steering
mat@@
next
fol@@
wrestler
#
spark@@
emptying
explosion
mo@@
older
prised
top-hat
diagr@@
restaraunt
harvest
sailboats
pancake
pe@@
tionary
bouncing
walkers
outs
screaming
ade
xed
needed
name@@
ri@@
stre@@
s
chemi@@
teen
proper@@
pens
vegetable
ons
coca
looking
vacation
be
pregnant
buying
snow
cell
noses
motorcycle
sprayed
handles
shielding
beneath
tae
top-@@
held
swe@@
waters
doesn
cameramen
frin@@
screen
feed
hand-@@
app@@
religious
clu@@
s@@
hol@@
af@@
fires
iz@@
earmuffs
lighting
cons@@
weight@@
off@@
burning
24
hu@@
approached
drumming
popping
overweight
unhappy
ack
pier
irt
crouch
transit
keyboard
hitch@@
started
long-sleeve
podium
appropri@@
any
mini@@
mush@@
layers
spot
horizon@@
sleeve
ssue
ter
camera@@
kitten
ornament
fashi@@
ens
slingshot
holing
puzzle
desolate
vered
whose
attempt
ering
atten@@
news
cooked
chubby
cowgirl
ck
shoe
prepping
bump
gre@@
slicing
flowery
vertical
deere
overalls
discu@@
fitness
actors
stall
sprinkles
attired
blanket
wor@@
form@@
troop
jackson
gymnastic
glit@@
indian
bling
paved
coast@@
harlem
countertop
bronco
ped
ers
clipboard
rides
court
spiral
daughter
mounted
bikers
capes
blond
blouse
lid
color@@
rit
mbs
leaned
cal@@
descending
ggle
ge@@
city
bike
piece
lows
age
backlit
c.@@
pin
ot@@
sai@@
karaoke
bowled
decker
maid
enforcement
elevated
chev@@
ramp
ba@@
ws
mixes
conne@@
mixture
gover@@
excited
bunny
liberty
expanse
pub
stump
brick
graffitied
bats
roo@@
celebrate
protect
open-@@
skyscraper
wades
bags
tal@@
challenging
power
tered
x
raises
award
writing
tee@@
ity
wells
pigeon
symbol
bowties
tutu
singer
memorabilia
oran@@
pancakes
handheld
lap
hill@@
iting
mirror
ling
bricks
cityscape
kitchen
tt
meter
wards
origin
catches
banners
cane
biker
win@@
disc
park@@
showing
ea@@
hur@@
closely
glo@@
puppet
kins
collap@@
smi@@
champagne
rainbow
balancing
buy
reporter
sips
cab
knives
fan@@
2012
crib
i-@@
jackhammer
game
straining
pouting
sets
three-@@
war
barber
identical
info
unloading
tim
visible
ous-@@
ni@@
organ
targets
ffles
tra@@
business
tric
larger
angry
teal
lou@@
dive
dilapidated
brow@@
tutus
applying
bandage
walked
dor
logo
stake
joking
dimly-lit
let@@
weighing
onal
ani@@
k
attractive
tricycles
hea@@
carries
side@@
comes
house
journ@@
up@@
breath
female
bordered
junk
adventure
under
kar@@
thought@@
falls
funky
newspapers
ele@@
happ@@
glassy
flooded
areas
ot
participate
latin
skirt
rescue
sombrero
barefooted
deal@@
off
lemon
green@@
da@@
resting
tel@@
lobby
learns
conven@@
lee@@
bub@@
tilts
upon
cuc@@
stron@@
sign@@
give
so
fixture
sofa
ton
checked
wants
charcoal
collecting
labradoodle
bb@@
admiring
itch@@
top
brooms
38
thumbs
washed
warrior
runner
rode
gift
draws
closing
list
brown@@
fills
ckle
fla@@
bowl
mustache
league
fit
colors
contain@@
synchroni@@
%
shade
evil
orna@@
wheelbar@@
tri-colored
briefcase
whe@@
bs
barric@@
ponchos
ars
ors
jacket
bump@@
staring
sweaters
sling
logs
parents
approximately
downhill
diver
patches
paperwork
maneu@@
trying
alling
intrigued
operating
peeking
bib
concre@@
snowman
cutout
rican
cliff
serene
altitude
distri@@
hel@@
tilted
marker
waterskier
able
lished
broad
fireman
zebra
puppies
ponytail
appearing
designer
staircase
semi-formal
climb
sleds
computer
showcasing
wooden
dane
screw@@
legos
joy@@
plum@@
hunter
pace
flying
neighbors
stage
res
alaska
on-@@
bmx
driven
coworker
nic
beanie
head@@
ocean
mmed
oper@@
prepared
tangled
volunte@@
fake
pink
blocks
stu@@
curious
timber
ima@@
regi@@
dance
.@@
organized
rese@@
ders
juice
too
viewer
per@@
shelter
armor
mountains
beards
reclines
wait
divers
reen@@
ginger@@
tuning
stance
seniors
jack-o-@@
drawing
prevent
adm@@
den
banner
aving
young
sunflower
darkly
metalworking
outf@@
conduc@@
backpack@@
washington
parachute
0@@
particular
av@@
talkie
oh
zombie
judge
hair
cy@@
referee
ues
scor@@
slumped
lighted
splashed
nicely
tical
workers
household
flames
bran@@
samples
ollie
sings
check@@
possible
artistic
deli@@
himself
dachshun@@
careful
roof@@
communic@@
scre@@
ppers
sun
buck
path@@
shapes
tight
sted
ring
waist@@
directed
herding
sheet
home@@
firemen
spic@@
floaties
attentively
technic@@
raincoat
streetlights
coa@@
euro
semi
ligh@@
shes
ry
-american
beans
fri@@
7
tops
handr@@
kettle
stree@@
adding
gives
pastries
francisco
8@@
ready
dom
scarf
citizen
belly
preschool
2008
snowsuit
roses
entertain
beagle
monument
spee@@
u
kick
angles
pumpkin
trap
dugout
ket@@
books
very
marble
bell
gon
streaks
mo
don
making
boaters
snork@@
chunk
tunic
eclectic
roun@@
wears
mulch
spanish
stac@@
barriers
bistro
booth
sp@@
mike
ato@@
exam
observe
over
al
sunba@@
lun@@
downing
washing
reaction
candles
strain@@
liqu@@
attendant
conce@@
metallic
parent
sundress
curb
terro@@
singers
clams
cross
spatula
wagon
ribbon
sters
cutting
caressing
cut
brigh@@
after
covers
flags
plywood
stered
shrimp
highchair
ulp@@
collie
happily
drop
transform@@
glasses
ger
cheeks
winding
hardwood
at@@
ycles
peace
sports@@
animatedly
velo@@
bed@@
slacks
bicyclist
turtle
waffle
prep@@
ten@@
trips
five
floors
enjoying
firefighter
mas@@
done
hero
hello
discussion
stream
teenagers
folded
man
rowers
wns
chop@@
multiple
oul@@
mate
zombies
blasts
backstroke
swa@@
walks
trench
tist
waving
stoops
banquet
to-@@
longing
blocking
p
pigtails
silver@@
nail
hijab
discuss
shadow
incredible
role
statute
assem@@
archway
blosso@@
colon@@
high
motor-scooter
youth
seated
shoreline
sawing
tti@@
shorter
paraphernalia
cing
shields
nap
backward
unlo@@
flotation
teaching
observes
leans
dock
ners
congregated
plan
repair
marx
fences
polka-dotted
strewn
enthusiastically
west
pretty
ath
facade
coat
cop
bunk
ura
deter@@
carried
planes
dge
arti@@
brightly
lush
partially
selecting
hammock
way
balance
ok@@
butter
equestrian
blows
collar
icic@@
patrons
cleaning
geo@@
leak
holiday
pioneer
snowdrift
wrist
enthusiast
monopoly
gal@@
ghtly
process
attended
spor@@
prayer
stumbling
boss
stuff@@
centr@@
seem
pig
captured
white@@
rain@@
remove
schi@@
gener@@
ols
kiosk
while
plays
bull@@
taken
to@@
jo@@
monitors
sunhat
gig
lic
trouble
xylo@@
6@@
pra@@
crashes
tained
d-up
dried
mustan@@
boxing
beard
clowns
cheering
skateboarder
der@@
support
lec@@
liquid
live
align
lifeguards
stainless
salu@@
octopus
chalk
escalator
bians
contorts
ger@@
beverages
sticker
pu@@
factory
den-@@
sprints
rates
jogger
moss@@
release
coaches
piercing
arm@@
playpen
kayaker
tired
curve
spilled
k@@
h
upper
handing
clause
shooting
street-@@
wands
iowa
announcement
ski@@
bron@@
child
performance
ty
casually
fours
aint
vendor
clas@@
caps
owners
synchronized
families
cat@@
bathed
isra@@
sym@@
terri@@
crag
gallo@@
gear
engages
nightclub
ace
ming@@
kayaking
segway
skil@@
violin
electri@@
easy
laugh@@
texting
wan@@
retrieving
begin
launch
country
beret
gypsy
quaint
camo
planting
rapids
sky-view
people
salad
short-sleeved
busy
hoe
diamond
blue-@@
sucker
propell@@
stures
fellow
chess
ard
closer
tent-like
issue
atv
capri
terrier
respec@@
&apos;@@
shoelaces
africa
balls
fed
squeezing
polish
leaf@@
breakdances
sweaty
stle
tongue
sho@@
rugby
lace
bru@@
sten@@
rusty
bal@@
song
spins
produ@@
zune
fireplace
pain@@
saf@@
breaststroke
mats
den@@
strike
humans
enjoy
stuck
ions
lum@@
famous
fr@@
ctic
though
shoo@@
saw
golfers
sso@@
toilet
horizontal
mr.
cran@@
sto@@
either
toss
gs
fic
swung
occasion
cig@@
easel
reddish
ad@@
mittens
ha
back
tank-top
barrier
pulley
plaza
multitasking
uts
ah
sack
empanadas
gos
tossing
path
posts
pursu@@
musical
belts
cleaner
lovely
patchy
unusual
naked
missing
st@@
tugging
innertube
footbal@@
costumed
pile
human
washes
ant
wear
shining
pounces
graffited
typing
lies
mustachioed
conference
heeled
long@@
blur
projection
putting
green-@@
ery
tights
ple
di@@
cheers
hospital
applies
mohawk
raw@@
ted
cs
laun@@
craw@@
lollipop
greet
fasten@@
itter
side
mowed
pean@@
mu@@
buffalo
vil@@
impre@@
unusually
me
drift
flashlight
tower
ohio
outside
surgeons
el
passenger
painter
sliding
lling
itali@@
scoo@@
paving
bowing
cou@@
sons
stro@@
blind@@
yellow-@@
helmets
steaks
ducks
pointed
glances
gli@@
robe
boo@@
sandals
athle@@
backyard
gir@@
christmas
backpacks
baton
cuto@@
hispanic
le-@@
lounge
tri@@
strums
no
ice-skating
sword@@
workout
starring
bee
reenactment
cats
circular
gas
aty@@
bake
ori@@
yan
even
hulk
pollution
question
mingling
canned
.
ku@@
puppy
window@@
ide
eds
shepard
cathedr@@
safely
jumpsuit
liner
skele@@
dre@@
sla@@
tasty
natives
words
slope
aerial
chy
ically
dueling
mag@@
early
grasps
shined
fence
ribs
lam@@
cted
protest
called
than
innoc@@
rests
dresses
stools
end@@
spreading
cked
wares
steep
school@@
stand
wrestles
gton
were
paintings
coastline
ssi@@
runway
ul@@
culture
unidentifi@@
cable
goers
designing
men@@
ramps
chickens
skiiers
bean
fu@@
sculpting
yar@@
runners
peep
mailbox
respon@@
same
wrestling
upstairs
han@@
large
aviator
ear
tle@@
dressed
assortment
bla@@
glittery
sary
adult
pain
suspect
goes
sheep@@
hanging
frolics
equipped
jazz
decorating
armored
fou@@
ay@@
cke@@
god
chairs
suspension
ound@@
downtown
shepherd
flee@@
crouching
within
guys
mountain
iti@@
maple
pati@@
ously
muslim
benches
step
wavy
solit@@
gay
bulls
shir@@
cola
partying
inspects
en@@
met
conductor
own
tains
weave
misty
fier
hate
sucking
gated
sser@@
bullet
poverty
back@@
baby
teenage
ipod
pillow
rackets
twin
am
lake
patterned
skates
right
backwards
protesters
might
fencers
weights
binocu@@
flowing
tattoos
husband
exhau@@
accompanies
lan@@
attaching
black-haired
shish
related
jerseys
spac@@
creates
odd
fen@@
concession
snowmobiling
tests
picture
flan@@
wrestlers
acy
buses
clapping
highly
paint
vegas
pans
crashed
bing
inside
engage
sw@@
floating
c@@
bartender
sveral
got
size
flight
sel@@
again@@
admires
class@@
stirring
broccoli
cellular
weapon
victim
hotdogs
halloween
ting
gathers
wedding
spinning
chri@@
change
solo
speed
instructor
tens
leafless
pa@@
healthcare
less@@
key
countryside
bear@@
wrong
knitted
$
tight@@
less
orioles
buckets
deciding
go-kart
attentive
juggling
beach
posse@@
offer
auditorium
pale
electronic
man@@
bu@@
transformer
toothbrush
racers
sad
clenches
well-lit
heels
participants
fish@@
shelves
ipes
wide
pi@@
egret
fe@@
chin
boating
groom
formed
iron
socks
speakers
exten@@
recording
shut@@
warehouse
captivated
00@@
an
ll@@
run
monitor
lei
burgundy
ates
white-@@
garments
smooth
chat
end
horizon
hike
sleeveless
hops
mature
surface
foundation
average
feels
v
browni@@
frame
hip@@
heal@@
syrup
hula@@
button
perhaps
taping
when
sage
kickboxing
halter
penn
bowls
array
rock
sprinkled
th
chained
kil@@
cash
outdoors
motorcyclist
sold
scissors
cooks
foods
pen
hokey
celebrating
flowers
sooners
se@@
congre@@
cau@@
oper
historic
pover@@
cool@@
hung
enclosure
f
twilight
dered
aver@@
brownish
examining
zip@@
pf
mask
teeth
last
slum@@
competitive
camp@@
machete
pumpkins
snuggling
arabi@@
observed
lar@@
situ@@
sibling
dead
spiderman
sections
simple
black
pou@@
imitation
bor
officer
comic
boutique
organ@@
ddles
fireworks
bakery
grill
overpass
tr@@
miniature
telephone
reco@@
ore@@
manic@@
finger
writ@@
ails
1@@
gambling
silverware
pitched
overhang
director
rolling
sledgehammer
flowered
barbie
soapy
comforting
cages
dumping
leng@@
occupied
delivery
demonstrates
herbs
fts
grand
drum@@
college
spra@@
atop
melons
watered
covered
latin@@
banana
rainstorm
kin@@
brow
sta
landing
trailer
speciali@@
twirl
beater
bagpipes
son
crying
0s
back-@@
earphones
friends
sniffing
shampoo
shaggy
dunes
depicting
metal@@
stum@@
candle
kickboxer
leads
pillar
assisted
tourist
sala@@
scent
tattooed
showgirl
won
follow
snake
hawai@@
blown
vehicles
bull
cut-out
desser@@
floral
answers
lonely
helmet
lockers
island
cler@@
n
watched
hs
gates
praying
2@@
cloths
faced
cork
menu
need
red-@@
retrieve
milling
attaches
jockeys
eating
horns
crates
headbands
gesturing
slowly
uniforms
barn
intimate
cream@@
pacifier
bounds
without
ette
class
amish
rustic
ads
assi@@
cob@@
mexico
bridge
backflip
secon@@
snowboarding
tags
ner
com@@
ght@@
ne@@
cupping
tele@@
doorway
scoop
tucked
cellphones
gold
golf
crammed
motorcyclists
swan
shel@@
setup
cables
item
going
scrap
technical
wer
sipping
seafood
open
descent
prin@@
javelin
balances
age@@
shaved
mustached
gathering
entertainers
quar@@
war@@
ap@@
ar@@
illuminating
camel
village
cor@@
plu@@
seamstress
guitarists
ound
borne
rollerblading
asian
electrician
maracas
boulder
pic@@
pick@@
beds
quo@@
ink@@
donal@@
vid@@
hitting
range
busking
,
bazaar
whisking
shirts
including
unknown
rep@@
representing
hoodies
black-@@
pebbles
amp
ffle
tar@@
ple@@
create
hit
young@@
soars
creek
picket
stro
storefront
sends
greens
eleven
coolers
nap@@
stadium
easter
involving
european
ailing
retail
swi@@
cabin
wheeler
gh
wing
moun@@
izing
many
bat
plucking
suitcase
coke
dimly
similarly
shouting
rig
riding
granddaughter
medical
chart
barren
fresh
formally
forklift
twins
cups
roller@@
airborne
opponents
military
sort
strawberry
par@@
mi@@
aloft
conveyor
hold
inf@@
rot@@
how
caution
tambourine
waterway
viewing
we
kin
floppy
gol@@
nets
headset
rider
baggage
uniquely
seas
skeleton
white
percussion
dark-haired
busker
na
wling
q@@
skit
chases
views
vol@@
record
ou@@
newborn
eful
toen@@
ragged
ordering
collected
hor@@
helped
load
thor@@
window
drape
dh@@
sharp
downward
fare
meadow
torches
wrest@@
cramped
gu@@
personnel
starbucks
sk@@
spreads
records
nintendo
ent
spread
pit
corn
trumpets
sucks
commuters
dealer
dalmati@@
firing
jesus
arrange
wooded
didgeri@@
pl@@
0
venue
collection
long-@@
racks
!
runs
treadmill
jumps
lu@@
truck
sells
pig@@
bookbag
butterfly
son@@
hoo@@
g@@
spiky
donuts
wipes
ufc
des@@
headscarf
pact
parade
stethoscope
various
icul@@
reaching
medit@@
owned
oddly
thread
sausage
recor@@
kilt
mounds
mac
lers
le@@
trou@@
ings
convention
artist
pavement
lipstick
stom@@
heartbeat
-deep
corn@@
pony
star
heart
taining
tracksuit
tall
competit@@
photographer
lives
handstand
ists
billboard
ing-
mid
breast
guarding
evening
tress
dri@@
band
berry
technique
cks
landscape
ec@@
aud@@
poun@@
attached
arid
aboard
released
e
dusty
pretzels
parking
manhole
stairs
burger
baseball
quick
clearing
muzzled
ck-@@
equipment
welder
chair
approach
brightly-colored
media
ial
dust
system
dled
scaffolding
as@@
executes
canoe
off-screen
sweatshirt
gap
skate@@
secre@@
cover
tear
stopped
laptop
passerby
should
dandelion
civilians
mixed
rounding
ation
applied
industrial
meal
ine
couch
x@@
moving
ecstatically
massive
olive
moms
here
peddling
friendly
serve
simply
squat
colleagues
bucket
middle
except
four-wheeler
bagpipe
bearded
ite@@
tracks
follows
zigzag
u.s.
shady
lock
government
tiny
orange-red
bookshelf
instrument
trash
ty@@
play@@
similar
member
cheek
stunts
dusk
short-haired
ky
lassoing
wildflowers
braz@@
scenic
upcoming
secures
scattered
tobacco
textile
acking
formation
true
butchering
architecture
disk
aero@@
spoons
dentist
snow@@
of@@
billi@@
go@@
foo@@
items
obstruc@@
go-cart
dles
communicating
iden@@
sax
number
adorned
seats
pastel
knock
yor@@
rings
kimonos
paral@@
knight
offers
ornate
tethered
chatting
about
cliffs
nips
outfit
tain
faces
presses
squats
thatched
sweat
calf
wakeboard
working
legged
guide
ble-@@
snowboards
foreground
geisha
area
bro@@
pasture
ak
decked
lanes
reg@@
ex@@
med
bride
tipped
ho@@
bird@@
oxygen
oversized
pe
her
kawasa@@
skim@@
cutter
linens
emb@@
str@@
moored
married
paintball
ham
treat
flier
garden@@
illuminated
serves
ends
bread
men
only
cap@@
necks
trid@@
nighttime
ith
ving
designed
limo
cher
r
ure
insect
tents
point
mowing
looks
cobbled
shelf
od
span@@
scenery
rist
all
cockpit
billy
kicks
interview
gun
waterproof
ken@@
rubble
cheer
ached
based
laying
brac@@
blankets
directs
groceries
tie
coffee
show@@
sliced
wheel
their
copies
-skinned
knit
silhoue@@
tile
mobile
kilts
wetsuit
mouse
clar@@
burn
makeup
tially
zoo@@
ai@@
watercraft
bow
school-aged
handlebars
confetti
upside
wat@@
girl@@
graduate
awaiting
captain
bills
ben@@
flo@@
aking
fle@@
robed
raised
ab@@
spir@@
tinted
treads
crossed
flap
atory
quad
softly
preparing
footed
mom
disney
adul@@
colorfully
burrit@@
sks
also
begins
tur@@
mp@@
sunglasses
pizza
backs
proclaim
towed
fishing
i
beam
sweater
a-@@
scrat@@
lo@@
squee@@
fan
hard
audio
est
padded
come
cubicle
on
climbed
against
ping-pong
sume
barbecue
wrap
powerpoint
cells
created
gn@@
a@@
villagers
spotlight
windbreaker
adjusting
cameraman
fashionable
office
oncoming
spectacular
notre
far@@
cleans
reflecting
frantically
necklace
ma@@
tropical
human@@
potatoes
troops
check
mid-jump
concrete
cob
egg@@
on@@
weathered
conif@@
cadillac
grass
oar
bble
spirit
meet
yment
saris
salon
scottish
railway
white-haired
refreshing
wash
accompaniment
ven@@
off-@@
quilted
meats
poles
getting
bit
rela@@
goof@@
sno@@
fully
contestants
gri@@
best
mock
ition
word
japan
hand@@
state
fountain
fra@@
faux
gi
contingent
basket
light
parachuting
large@@
currently
my
holds
squares
comple@@
interviews
aring
-type
tv
soap
pack@@
briskly
teachers
digs
horse-drawn
oceanside
snowcapped
spikes
laundromat
via
washer
oil
tarp
slip
cookie
resem@@
exciting
saving
paddled
ster@@
softball
dives
round
wers
flag
-like
wig
bill@@
sip
pump
brea@@
television
tering
ballet
expression
readying
soon
quarterback
towels
popsicle
showers
mound
forehead
bald
coney
val
slu@@
bin
ko@@
gham
carrying
spring
barely
funny
jun@@
stripes
random
toe
gular
farmers
times
ch
theat@@
scaffolds
maybe
clothed
past@@
cha@@
cattle
recent
bat@@
pres@@
winning
yo
banging
ke@@
railing
curly-haired
trims
in-@@
animals
horn
surroun@@
sumo
zoo
swims
arrangement
prepare
leather
net
obama
eless
nt
operated
kicking
yc@@
fix
tribe
pilot
greeting
fire@@
she
san
pirate
postal
stacking
bushel
nu@@
hipsters
commu@@
trac@@
hydrant
bicyc@@
tail@@
smock
rises
cow
loader
streets
pinstriped
press
twelve
silver
rol
ze@@
above
project
finishing
fingers
zer
trip
ssor
pp@@
dar@@
twi@@
beat
dam@@
navigating
modern
b
ferris
grap@@
abs
wounds
secu@@
sure
cluttered
coaster
teaches
anim@@
sashes
horses
form
bomb@@
risk
fierce
guidebook
father
smiling
seminar
snowy
sun-@@
ase
its
teams
cro@@
pir@@
circuit
drummer
ale
broken
gent
tree
mischie@@
custody
dutch
few
wade
grocery
explorer
police@@
sen@@
nun
acrob@@
seen
ain@@
approxim@@
-wheeler
teens
olympics
multi-@@
ue
raw
metro@@
foot@@
patri@@
handgun
if
umb@@
scientist
goal
featuring
solar
dancer
artists
screams
fresco
casual
cept
trunks
passersby
nails
session
snowsuits
professionally
chainsaw
heading
se
mopping
customer
nude
platforms
unic@@
out
earth
mil@@
rit@@
trolley
miniskirt
headlight
we@@
cyclist
ref
port
michael
bucks
leotard
athlete
sof@@
turbans
dges
yo@@
pad@@
dram@@
listens
park
ffs
picking
graying
merchant
tattoo
testing
friend
bowtie
colum@@
10
cardboard
harp
slide
board
folders
dries
sta@@
falling
exc@@
hilly
ada
gue@@
fundraiser
die
sheets
chest
bystander
traverse
bends
muscular
tum@@
re@@
leap
br@@
presenting
loaf
00
rece@@
vault
pathway
waterpro@@
blazer
season
wheels
ely
preparation
rollerblader
welds
tar
shift
ff@@
attend
nat@@
vw
flexible
ceremony
chewing
rod
tea
20@@
line
hydraulic
toilets
a.
opinions
tricycle
chimney
return
paw
cy
kabo@@
che@@
pun@@
treed
mage
middle-age
vel@@
grate
rinsing
sparkler
ra@@
karate
solid
visor
labor
community
lons
panda
merry-go-round
2.@@
pee
field
cartons
strap
consum@@
sock
ren@@
opportunity
installing
petals
flip
surf@@
dirt-bike
toil
sloping
ladders
catcher
comforts
hudd@@
mother
cutoff
art
gray@@
inju@@
sprinkling
informal
mouths
littered
shing
cting
reluc@@
out@@
colored
hips
videotapes
yawning
good
ure@@
bee@@
infant
railings
log
dged
tribal
tunnel
breaks
partner
dropping
flies
erected
cock@@
parasail
xiously
corral
bubbles
actively
gger
axe
seat
garden
bl@@
ong
docu@@
bundled
important
material
controls
fist
cour@@
arcade
technician
d-in
double-decker
position
ensure
ums
race
patio
photography
sister
chores
photographs
nas
type
ame
stopping
tennis
run@@
poised
soda
mad
z
prope@@
tion@@
rise
dad
aqua
tailed
shot
vacuuming
shaving
congregate
lettuce
overlooking
bou@@
bri@@
sweatshirts
repelling
fort
boarding
mascara
toon
addressing
clouds
push
freshly
as
table
sandwiches
shape
bend
toy
peach
sunset
whistle
swoops
prac@@
german
are@@
ident
bathrobe
stylist
plush
hollow
itself
tin
chi@@
tti
ropes
pitbull
slab
enjoyed
swee@@
otic
every@@
trai@@
lowing
growling
thousands
aters
dread@@
mule
missed
boxers
sledding
regarding
contents
pleas@@
digital
pet
groucho
elder
bag
disco@@
machine
shacking
lic@@
u@@
ssing
horsemen
bon@@
news@@
eccen@@
peb@@
sewing
gon@@
roots
le
hikers
dos
sandy
grinding
ded
bands
rubs
homemade
show
pane
guest
the
peri@@
gate
stripe
glowing
refe@@
umber
consisting
establ@@
ke
ning
warri@@
ascen@@
geish@@
pro-@@
braids
fog
blurry
suburban
de@@
awe
mer@@
bead
fans
ever@@
recreational
raging
ford
lost
sports
ne
cartwheel
looked
leave
goofy
gla@@
no@@
sheer
medium-sized
leaping
loc@@
struggling
african
grab
bird
copy
unidentified
sweeps
opponent
vie@@
angels
tant
-looking
contor@@
drilling
amble
staff
nee@@
inner
long-haired
bi@@
arrival
spits
woods
lining
puddle
guns
happe@@
snowboard
chin@@
scrimmage
beats
accordi@@
ste
explains
pour
ler
icing
basement
fa@@
batter
publ@@
briefcases
skateboarders
yanke@@
lip
jogging
alle@@
lli@@
scrubbing
space
swing
op@@
trots
medi@@
soldering
texts
scouts
kid
washers
ately
background
triangle-shaped
bear
text
not
fatigues
hills
sculpture
snaps
aves
smile
ins
ashed
advertisements
ornamental
headgear
person
previously
graphi@@
flow@@
suit
balloon
photos
entertainer
stroke
sparklers
welding
neighborhood
chipping
ti@@
underground
vic@@
hula-hoop
pedals
harne@@
camp
column
roller-bla@@
grind
=
angeles
directly
ground
bouquet
sleep
suitcases
mechanic
impressive
nine
suppor@@
oc@@
master
she@@
submerged
sailor
american
pid
chase
de
ascar
bikini
dgers
wheelie
ritual
aims
chased
eye@@
ishment
skills
riverbed
laptops
unkempt
rags
surgical
ties
action
fabric
yells
kill
nibbles
barre@@
take@@
graffit@@
mad@@
dr@@
gh@@
slou@@
boulders
lower
auditioning
ious
enter
pairs
milit@@
performing
rocking
blindfolded
skateboards
posing
distorted
citizens
was
far
sil@@
contraption
ballerinas
baltimore
hosp@@
creative
cream
smirking
two-@@
huddle
snoo@@
ming
trees
magic
ited
skateboarding
straw@@
tag
alls
elephants
maneuvers
juggler
gymnasium
soa@@
owl
length
simultane@@
inspecting
fo@@
liquor
manicured
stars
b@@
handful
another
album
riz@@
paws
crack@@
toys
due
sponsored
filming
handshake
reclining
power@@
day
bite
hitchhiking
sha@@
examined
bagel
shown
adven@@
frolic
twe@@
more
semi-circle
wicker
donkey
patrick
bin@@
crosses
cause
nor@@
wings
helmeted
interior
handle@@
urs
ledge
ature
bushes
darkness
hiding
bus@@
wed
unwraps
hear
decorated
sprinting
discovering
frothy
grouped
fourth
water
backdrop
poorly
entertaining
winded
slot
dining
body
hind
crew
campfire
noodle
sky
re-@@
crayons
dic@@
vocalist
yway
socializing
apple
bearer
circus
light-@@
clo@@
this
separated
pul@@
wa@@
nurses
enrolling
allow
fur@@
neatly
khakis
ank@@
tes
cycles
tresses
acce@@
pajamas
ities
pered
carved
favorite
lottery
hal@@
parked
outfiel@@
picks
glove
aircraft
control
chef
ches
flea
discussing
accep@@
spa
harvesting
convers@@
uphill
peaks
birds
walker
pages
u.@@
figures
forearm
amongst
dustpan
freight
department
sitting
he@@
unk
italian
barrel
train@@
potato
produce
ft
mainly
dame
gateway
veter@@
eyeliner
goal@@
megaphone
aid
topic
maintenance
drummers
surfers
submerges
rafting
screwdriver
trunk
fell
reviewing
airline
terrace
spider-@@
across
hands
tow@@
papers
teenager
adi@@
custo@@
instal@@
grabbing
auto@@
four
twister
snows
flip-flops
snowshoe
part
tick@@
nished
ponders
boogie
lasso@@
storm
cookies
espresso
butter@@
traditional
ty-@@
emer@@
parlor
colle@@
makeshift
poodles
soon@@
matches
multi@@
make
cloth@@
gardens
crosswalk
calvin
offe@@
beautiful
walk
enthusia@@
tug-of-war
purchasing
enthusiastic
renov@@
bucked
bean@@
casting
hikes
busine@@
strumming
pompoms
comfortable
vintage
tics
rou@@
hiker
violin@@
placard
london
jack@@
pockets
ill
employee
mail
jar
boys
carpenter
legs
poking
seagulls
mesh
kisses
stalks
ridding
ske@@
parrot
our@@
shoulder
bies
frown
sunshine
sat@@
inspec@@
varied
y@@
ver@@
hoi@@
tre@@
treats
bespectacled
signing
indians
native
tongs
variety
inte@@
flipped
nel
k-@@
laughs
british
rickshaw
named
scr@@
gan
slamming
piles
glass@@
rice
tas@@
brazil
pabst
used
ensemble
version
cupcakes
sunday
arts
carnival
squirted
dou@@
sword
bus
musician
cracked
repe@@
cen@@
des
adjust
ral@@
in
motion
acts
pensive
ily
products
streams
una
s-@@
ager
stack
possession
scri@@
laden
separates
specific
extends
rema@@
admire
inclined
spin
popsi@@
equ@@
instruments
camper
tackled
fair
main
te-@@
contest
ls
atm
wigs
ally
color
reaches
town
sque
hill
checking
drinking
nerf
bending
could
wall
hair@@
saws
everyone
hum@@
ids
marshal
gr@@
bongo
curling
ze
glancing
ywood
chal@@
thin
pitch
sunlight
crafts
claus
elbow
umbrella
ize
ung
messy
dis@@
study
rugs
speci@@
ales
in@@
skillfully
cles
pant
rences
escalators
credi@@
sou@@
painted
listen
ator
mma
ese
food
hula
seven
ceramic
emerges
exiting
shin@@
frisbee
entrance
sending
earrings
huddled
graze
brother
motocross
aim
tive
metropolitan
guard
probably
track
congregating
casino
professionals
relax
populated
morning
plain
adventurous
down@@
contestant
europe
cold
cleats
catamaran
blue-green
ama@@
glider
feeding
ies
loop
handmade
weeds
winds
conditi@@
cheer@@
delivering
du@@
guiding
facing
swor@@
comical
framed
rectangular
packages
ved
gown
professional
advertising
sweeping
vi@@
racket
wrench
tons
el@@
ice-@@
trotting
sleeved
interesting
maneuvering
mouth
streaming
metro
wrangle
inspired
sidewalk
electronics
rabbit
rushing
manu@@
ably
hog
stem
vikings
tightrope
thin@@
ver
shep@@
scooters
aquarium
link
hoses
rocky
sol@@
za
that
stay
video@@
knees
attempting
ach@@
goatee
delic@@
sses
tools
jumper
track@@
i@@
ister
library
smith
seren@@
manipula@@
tch
tion
ker@@
tosses
shave
stones
4@@
wheat
lively
bridesmaids
wine
inspectors
circle
one
umb
t-shirts
lon@@
low
tang@@
elephant
jim
homework
walls
spen@@
companion
rette
wre@@
throw
eze
weird
seeds
arri@@
seating
atlanta
active
dolly
turkeys
dump@@
jug
pyramid
glue
fl@@
pop
find
drinks
boardwalk
fringed
2
tation
jack
visit@@
taking
aff@@
wire
advan@@
he
penske
cards
strolling
cakes
paris
inspect
fighting
adorable
holding
kayak
have
wetland
machinery
tan
registered
catch
skinned
containers
flame
builder
paneled
celebr@@
us
at-@@
dumps
neon
hundreds
figur@@
er
ism
igh@@
ance
ative
daring
clasps
ctor
menus
tanned
chan@@
had
peer
language
high-fives
filed
do@@
licks
determined
mess@@
boards
cowboys
using
doll
skirts
skin
ump
pushes
palm
grinder
motorbikes
beautifully
irons
ched
markings
mops
porch
skier
angel
ards
love
08
eyeglasses
surfing
strips
castle
bulldog
staying
;
passes
fedora
carts
flipping
brothers
gentlemen
certi@@
ly@@
ir@@
gravel
trophy
maje@@
outcropping
judges
sky-@@
residence
tus
drawers
paras@@
bow@@
glow
central
-covered
period
craft
kid@@
concer@@
5
fluffy
highway
clothing
janitor
break
bedroom
sweep
awnings
ga@@
gers
jumped
so@@
dra@@
information
firefighters
overturned
stra@@
nursing
picnic
decorations
scrapping
shipping
scooter
pauses
ta
bag@@
go-@@
become
kneeling
scu@@
scoring
sailboat
kimono
snoopy
two-piece
ferns
identi@@
raft
candy
seahaw@@
garbage
aqu@@
athletes
hot
forrest
ise
amp@@
drainage
tortillas
again
bathroom
rural
butcher
tau@@
busily
klein
loading
dishwasher
sleeps
bleachers
tack@@
balloons
hardware
vessel
od@@
pad
researchers
dish@@
tran@@
wri@@
obstac@@
pull
aids
mer
lot
st
shallow
overhead
shots
him
there
muddy
waterfall
lebron
taxi
signal
barbed
subject
rence
sed
led
passer
drunk
dies
til@@
graduation
let
selects
off-camera
ka@@
thered
fris@@
dunk
arran@@
scared
gyro
rugged
doctors
oxen
ferry
badge
drag
aching
patch
fill
microphones
volkswagen
selections
wristband
vehicle
buried
rest
tomatoes
hip
america
shadows
dino@@
bur@@
ining
suits
wee
ast
browsing
sits
3rd
stair
id
money
badminton
columns
fter
sizes
red
shor@@
bringing
crowd
fixing
port@@
crest
v-@@
slender
idle
transport
blinds
gently
ics
gging
mic
dreads
crouches
completed
minne@@
dresser
wl
heads
sporting
despite
henna
crash
old-fashioned
splash
gi@@
land@@
tooth@@
films
practicing
lo
letter
bandanna
histori@@
acked
green
instructors
sized
routines
instructions
zing
spotted
tackles
russi@@
bundle
phan@@
blade
stitch
pow@@
propped
tech
paddling
sub@@
historical
scrubs
focal
nan@@
dging
surf
somebody
apples
puffy
outstreached
chain
forces
mrs.
branch
con@@
stop
watermelons
bonding
circles
furiously
dea
labra@@
campsite
house@@
things
around
headfirst
dj
hooked
hedges
litter
bonnet
mind
farmer
an-@@
packed
multi-color
high-@@
dojo
ral
major
mas
sand@@
ping
classroom
er@@
footbridge
-colored
ter@@
others
powder
seashore
blood
guit@@
marsh
lau@@
ened
painters
neck
workbench
finish
vibrant
bikin@@
sheep
waist
ture
dump
handy@@
pard
attrac@@
devices
jagged
proudly
irish
colorful
nike
woman
s.
notice
because
sc@@
fitting
unfriendly
y
midair
rail
works
door
dec@@
te
fleece
ban@@
eas@@
constructing
ser
nic@@
herds
for
shoeing
tuba
ssions
tuxedo
front
lecture
deer
dalm@@
securing
blank
mural
bun
shirted
perform@@
stroll
underwear
rec@@
females
cook
kiddie
boy
spoon
bei@@
tongues
leaving
progr@@
er-@@
cowboy
places
locomotives
hoodie
flops
cheerleader
repairs
crow@@
priest
with
ol@@
climber
14
ripp@@
stic@@
devil
chips
starts
soccer
il
curtain
maj@@
violins
king
debris
dim
mini
attention
sunrise
case
vie
relay
chip
ber@@
ducking
symbo@@
caged
kie
skimpy
supplies
saxophones
wilderness
goalie
ated
ball@@
heavily
sandwich
heron
fil@@
kne@@
shampo@@
shouts
rist@@
mes
edge
services
kwon
tree-@@
barbecuing
co
ian
mobil@@
animal
biting
brimmed
ssed
say
pedestrian
tails
appla@@
trained
mosaic
into
gallery
rolls
ites
sticking
galloping
serving
home
referees
afe
conversation
poker
gloved
canister
shabby
tiara
made
students
scout
spend
turt@@
limbs
dy@@
comfor@@
meeting
joe
placid
firetruck
given
costume
gyp@@
gray-haired
hamming
pelic@@
waited
always
awning
goggles
plaster
dragon
evenly
late
interested
positions
traffic
volcano
plowing
ging
scrabble
it@@
competition
younger
frying
fight
presentation
tenn@@
topped
tossed
medieval
ka
trans@@
facility
super@@
flips
hoop
fallen
inline
supported
construc@@
snowfla@@
cur@@
concert
choreographed
function
shorts
well-@@
packing
adults
pressed
colourful
miscellaneous
da
snowing
ship
festi@@
sippy
contem@@
ines
baskets
rifles
iner
twined
digging
national
stant
ton@@
peak
begging
counter
watch
ures
keep
propane
touching
approaching
celebration
antic@@
poses
jewelry
scienti@@
pap@@
blin@@
reporters
rug
tiled
doors
b-@@
answer
south
cross@@
hug
6
petting
turning
loses
ginger
bonfire
ght
straw
family
d@@
styled
veil
tat@@
sniffs
ters
toenails
wheel@@
too@@
exper@@
well
13
ay
su@@
-up
inten@@
marl@@
jam@@
final
ig@@
prop
pillows
pian@@
boo
stunt
whom
ipating
ams
muzzle
shoots
sal
owner
hillside
pelo@@
liter@@
nears
enthusiasm
ashore
united
eyeing
india
palace
station
tip
super
t-@@
ve
remote
locked
tup
ying
rain
attle
wrist@@
hitter
header
setting
bowler
l-@@
rodeo
stride
harness
ampu@@
locks
lem@@
furry
lavi@@
sive
gymnast
ingly
sample
hammering
message
magni@@
body@@
every
collec@@
w@@
campaign
service
children
oars
falcon
journal
cho@@
pil@@
ish
spain
fair@@
work
strapped
convertible
wind@@
flin@@
orous
microscopes
eats
rocker
tye-dyed
life
remember
local
discusses
colo@@
course
tomat@@
deser@@
sal@@
dag@@
ga
grou@@
kayakers
licked
inn
moment
swords
comb
anvil
jogs
needle
ci@@
saddled
seamstre@@
feathered
volunteer
mini-@@
stants
officials
challenge
collared
violence
water@@
stories
swinging
skis
meat
squarepants
flashy
portable
numbered
skate
star@@
bloody
buildings
im@@
selling
supermarket
drink
graffiti-@@
carving
tiger
civil
starfish
ron@@
seashel@@
leaning
playhouse
coveralls
grips
chief
squ@@
standing
mattress
ceiling
ce
leader
world
swim@@
bounces
mine
grains
note
kn@@
county
podiums
narrow
ding
bored
surroundings
helper
mob
ggy
studying
sprinklers
zi@@
completely
ffin
ains
dolls
tackler
flaming
gold-@@
attending
enters
decides
counter@@
grilling
seems
completing
stilts
snail
breakdancing
backhoe
musi@@
guides
mickey
domin@@
canes
cereal
min@@
baked
trim
interact
chil@@
package
smelling
loo@@
rooster
berries
automobile
curren@@
garish
fruit
titude
hits
garb
pins
launching
pat@@
vel
strad@@
pre@@
backing
ators
cape
refreshments
kel
walkie
shed
feathers
sculptures
marina
iced
fly
swampy
appre@@
most
roads
plo@@
characters
wheelchair
awk@@
leaf
sea
agit@@
veteran
plaque
siting
tripod
hurdles
blond-hair
rely
swimsuit
stringed
budd@@
waiter
employees
handle
coverings
binoculars
sleigh
shopper
hawaiian
rollerskaters
zards
displays
drive
cord
cars
salmon
gum
racer
pics
available
dances
running
university
cupcake
arly
dex
supervision
choppy
games
squash
roller-blading
ults
came@@
terminals
blu@@
bun@@
concentr@@
aged
mills
sli@@
reach
intense
calendar
thful
scaffold
bars
turing
plank
finished
are
portrait
slee@@
police
hairdresser
model
swerves
surfboard
honor
tor
pads
trail
greenhouse
ude
vin@@
peo@@
minivan
ghts
pizz@@
squad
contested
points
curiously
melon
jackhammers
youths
secure
driveway
east
heavy
height
dry
helme@@
incoming
napkin
emotion
din@@
jungle
product
vaulting
competing
mitt
bones
indu@@
pee@@
ough
polka
rodgers
gin@@
maroon
nanny
jump
cli@@
dunks
blossoming
sparks
stairway
flights
newly
stylish
entr@@
mustang
tends
conso@@
fier@@
vul@@
saluting
ous@@
moved
visitors
cheerleading
80
advantage
swir@@
bares
sushi
yamaha
handkerchiefs
lined
rack
brushing
dish
livestock
trumpet
moss-covered
tire
focuses
playing
content
bass
obser@@
crank
sunbathers
combat
fired
region
t@@
page
jewelery
swimmers
clear
toyota
electrical
ment
lighthouse
eatery
rad
stool
voc@@
bulldo@@
lamp
cont@@
hay
gro@@
booths
dinosaur
flutes
graffiti
outboard
something
marches
lead@@
fishermen
condoms
still
exercise
left
cans
shingles
film
riot
attempts
shirtless
cannon
gency
hazard
aps
mall
walking
messenger
tiv@@
goods
waff@@
illustr@@
saxophon@@
attire
watering
posed
high-heeled
ses
poster
barefoot
explores
learn
marsh@@
cushion
plow
surfer
renaissance
&apos;t
bowed
loudspeaker
protectors
mod@@
mover
moves
chopsticks
seas@@
nearby
emergency
towe@@
craftsman
ca@@
crayon
water-@@
snorkel
hugged
tee
thomas
semi-@@
samsung
indoor
barking
tractor
turkey
better
campers
trombone
gripping
ing
laundry
ury
studies
art@@
rum@@
atic
camcorder
riverbank
vacuum
ain
wetsuits
blow
emp@@
bathing
surfboarder
mail@@
involves
concentrates
gin
openings
dwelling
bracelet
gowns
cess
saddle
blue-shirted
pedd@@
kee@@
pictures
sleeping
mid-@@
stationary
suite
aming
architectural
tions
opened
quartet
kitchenaid
3
sidewalks
balcony
festiv@@
exhib@@
pointy
clever
th@@
headdress
mess
hamburger
sorting
grins
condi@@
much
bathtub
soil
pin@@
rin@@
hand
knife
affe@@
paperback
presents
twen@@
handled
oling
navy
ck@@
exam@@
grounds
knee
photograph
mountainous
dark-skinned
wraps
both
alcohol
cabin@@
wn
igloo
curly
tugs
canadian
shops
stry
wallet
stic
stock
magazine
sting
lemons
read
get
stunning
ethnic
ste@@
acrobatic
living
t
powdered
cu@@
mcdonald
welcome
harmonica
props
hearts
simultaneously
clerk
gesture
shirt
dramatically
tagged
distance
corridor
ride
lowering
china
caught
wand
climbs
management
roof
event
stretching
water-filled
flatbed
ups
handrail
bushy
giving
fingernails
ape
ju@@
xe
participant
exploring
dir@@
pocket
cows
ets
spa@@
ley
long-sleeved
bench
defends
bandannas
dropped
fer@@
o
ali@@
his
skies
pattern
john
tu@@
your
threw
lit@@
swimming
tter
climbers
measuring
try
political
chinese
execu@@
protec@@
onlookers
aver
kings
activities
woo@@
vietnamese
hollister
handbag
pitches
paints
wh@@
or@@
boat
puma
ination
consoles
ghter
covering
releases
teammate
hovering
makes
beaker
marketplace
roller-skating
up
males
competes
hairy
members
mets
stock@@
empty
ribbons
victory
cup@@
spandex
jeans
corner
squirts
what
international
large-@@
woodland
fishes
tears
shrine
erry
doo@@
razor
balling
popcorn
kind
iors
apartment
boston
oranges
snarling
-block
dash
korean
spar@@
wading
wild
pretending
certific@@
cellphone
skater
sees
mermaid
loose
two
jet
somewhere
tro@@
handhold
sideline
moon
steer
temple
tinsel
coo@@
va@@
theater
resort
playground
scene
adolescent
california
grizz@@
tubes
m@@
rics
mor@@
microphone
hose
cal
wet
steals
refu@@
army
crane
guy
tun@@
drawer
wood@@
agility
occurring
ther
movie
formations
numerous
eight
followed
ran@@
cover@@
tub
sled
scarves
chisel
moped
lemon@@
performer
ld
stockings
explo@@
weaving
hula-@@
straps
tires
mascot
wii
asians
11
ades
sash
thi@@
slin@@
patient
eye
leashed
half
forming
navigates
eag@@
em@@
behind
web
ish@@
lemonade
great
underway
ly-@@
fast
tube
masks
ina
fashioned
third
snar@@
cap
binder
masked
robes
countr@@
steps
eng@@
passing
newspaper
scary
offering
hurry
trio
post
ong@@
rid@@
profile
fore@@
turtleneck
mug
sax@@
surfboards
sor@@
brass
sociali@@
patron
series
speeding
napping
skinny
americans
pitch@@
deep
re
regal
aside
rock@@
manual
toddlers
latex
sunbathing
arguing
mb@@
diaper
lady
birthday
mattresses
lifted
soldiers
force
routine
singing
dune
spraying
someone
cket
hamburgers
wan
bronze
strip
obstacle
alleyway
consulting
swit@@
set
social
kno@@
geometric
fluorescent
accordion
beers
trad@@
garter
smoothing
eggs
bubble
organizing
old
bled
ttes
unpacking
almost
paint@@
boxer
firetrucks
reads
heat
ree
served
those
zed
magnifying
kayaks
heritage
chefs
cac@@
burying
lounging
recycling
wanting
das
returns
redhead
parasailing
relaxing
cr@@
cle@@
kids
bottled
brunette
converse
expressions
squirrel
controlled
ram@@
isle
tures
ladies
aping
dozen
packs
que@@
apar@@
monster
massage
racquet
lingerie
tting
establishment
trimming
caricature
old-@@
swin@@
building
embraces
hides
hiking
fetch
bone
between
peaceful
blankly
extin@@
trucks
sight
officers
character
belongings
couples
roadwork
skim
swim
appar@@
uncompleted
ut
cul@@
rusted
occu@@
apron
participating
tries
recei@@
consid@@
construction
shawls
forever
o@@
carrier
fighter
daughters
pping
splashes
card
ct
couple
releasing
incredi@@
lion
expre@@
located
shine
tial
acrobatics
second
monit@@
bar
fairway
enclosed
experiments
gifts
lared
ethnicities
outfits
statue
basketball
motor-cross
and
drawings
qui@@
ds
newsca@@
ail
talent
race@@
everywhere
rai@@
tic
hispan@@
floored
name
plan@@
ek
wooden-@@
mean@@
dol@@
itted
ful
protective
thrown
supports
designs
kers
ricksha@@
purchase
d
security
erly
unison
crushed
directions
shading
ir
stoop
known
incense
conducting
culinary
is
decide
adjusts
break@@
leys
squinting
dishes
scantily
multicolor
halfway
sculp@@
jackets
suspenders
putt
lights
craf@@
rafts
stands
sewer
conver@@
9@@
overcoat
shoppers
button-down
down
frozen
cas@@
crafting
meditating
&quot;
pple
turban
road
lapse
solider
rest@@
pas@@
amount
sombre@@
travel
documents
leopard
reading
lev@@
winter
participates
motorc@@
rough-@@
atched
alley
rehear@@
shit
start
trooper
use
sa@@
see@@
route
cracks
but
air-@@
matador
teddy
navigate
opens
airplane
fig@@
shoes
slim
budwe@@
cake
bed
creation
collision
ss@@
frilly
warmly
festive
bark
leggings
sale
ished
ki
violinist
forested
freestyle
passion@@
stout
science
artificial
uring
ditch
twirling
tro
als
fetches
raise
self-@@
cree@@
ps
graffiti@@
dia@@
slung
races
coun@@
drill
dle
wave
urban
kicked
mostly
damaged
vase
investi@@
bathes
selection
lizard
tomato
recently
extended
lake-side
backhand
or
asm
bush
isu@@
tor@@
improvement
tho@@
clou@@
30
drunken
sty@@
jugg@@
cow@@
mul@@
heineken
surgery
during
company
after@@
for@@
canvas
cathedral
twigs
greenery
dressing
aging
snowball
recorder
eyard
inning
bumper
quiet
senior
neck@@
pro
sel
sites
strobe
pinata
stan@@
rested
has
entertainment
walk@@
bly
haul
union
camping
bounding
tly
collide
lane
sedan
bounce
racetrack
clip@@
oning
informally
daytime
builds
burgers
dots
biking
fin@@
piano
protester
bill
hitching
motorized
enti@@
lawn
big
bookstore
scoops
taller
uni@@
convenience
freeway
stomach
te@@
injured
crawling
ge
blowing
ating
barricades
metal
trinkets
policemen
ate@@
bil@@
nibbling
vac@@
farm
coin-operated
hat
hula-hoops
pajama
umbrellas
bra-@@
heel
hugging
pped
besides
gra@@
some
tural
ic
prim@@
suv
whispering
shell
lanterns
van@@
snack
pinned
student
teen@@
physically
tape
enjo@@
superman
olympic
ching
tricks
derby
ice
antly
sun@@
ff
blond-headed
unload
checkered
astronaut
ths
univer@@
noodles
sna@@
ran
ballerina
lodge
transportation
ica
newlywed
por@@
touch
earbuds
bles
hang
bare
concentrating
ox@@
musicians
dolphin
look
suspended
ascending
written
shadowy
pitcher
harvested
colli@@
blues
parasol
completes
trampoline
fronds
visit
pillars
retriever
boarder
pokemon
bor@@
girlfriend
juggle
dribbles
warning
cinder
farming
layered
over@@
dio
describing
towards
dough@@
shines
room@@
trav@@
order
wrapping
draped
aston@@
bir@@
kinds
whatever
amused
d-looking
smear
indigenous
suspen@@
forest
part@@
press@@
competitors
tw@@
wok
stares
blind
blow-up
unseen
disco
mini-golf
skyline
puck
attered
fortun@@
cameras
exer@@
monkey
street-side
ine@@
names
sponge
stern
sharing
scooping
clean
necktie
di
seaweed
strac@@
location
nor
shaded
drying
ker
opin@@
grilled
inc@@
mime
mood
deserted
cat
roni@@
va
our
waterfront
calling
rising
limb
africans
job
arch@@
mit@@
flour
knol@@
scarfs
rear
itting
em
ks
workman
then
hippie
hangs
prizes
umpire
xes
coloring
tasks
drum
pirates
storefronts
gallon
tables
surprised
acoustic
garment
embracing
pan@@
sn@@
grimacing
slopes
dip
respective
diffe@@
brook
cheerful
display
party
wait@@
deflated
pos@@
receiving
pods
canyon
act
touches
outstretched
congregation
sy
jacks
phones
grinning
poultry
cardigan
buys
sman
who
match
ount
ments
help
poli@@
hook
mac@@
swaddled
ston@@
activity
wake@@
club
broom
polis
single
decals
charging
counters
racing
rose
maintained
blurred
autumn
9
signs
dun@@
cooking
lantern
matching
diff@@
cycle
worker
cobblestone
treatment
amusement
urinal
shakes
overall
crowds
lea@@
non-@@
school
david
red@@
coast
shack
football
add
mering
upset
safe
phone
llama
ip@@
scrip@@
breaking
lacrosse
scratching
moder@@
bra@@
museum
chie@@
utility
commercial
pulled
sweatsuit
elmo
face-@@
hoops
grin
-down
lifts
pictured
ret
performers
cri@@
conversing
drums
white-water
passed
ary
speaks
dyed
watery
laughing
dan@@
pen@@
tric@@
scores
gingerbread
memorial
maker
saying
scruffy
destination
dotted
applauding
desks
am@@
la
trade
telescope
creating
ordinary
vement
infants
hammer
pause
pruning
pouring
circ@@
along
ement
protesting
saxophone
transporting
sequence
scramble
gui@@
curved
crosscountry
tex@@
ell
blue
ndy
appe@@
clarin@@
wea@@
clad
contemplating
mix
steers
alpine
mpor@@
close
sport
lab
pray
draw
surrounded
recliner
cyc@@
sa
table@@
gloves
ckled
hour
ways
dumpster
downwards
parts
hid
arch
four@@
ouse
weigh@@
pleasant
assists
mane
bottoms
gy
landmark
deli
pops
doo
butch@@
asi@@
insec@@
puff
bale
bar@@
javel@@
flower
belt
lets
numer@@
ats
ti
post-@@
ended
cavern
pots
sca@@
kissed
gradu@@
scru@@
ultimate
fiddles
pla@@
har@@
guar@@
elevator
beating
al-@@
ena
ket
see
fic@@
pharmac@@
string
yo-yo
trains
aban@@
helping
cigarette
ponytails
signi@@
oriental
expan@@
trin@@
air@@
egg
graphy
pac@@
tle
bales
scale
aisle
serv@@
grills
descri@@
fingertips
alig@@
fiel@@
camouflage
chains
engaging
mower
geese
tipping
classic
sts
terior
weather
ten
envelope
math
landsc@@
schoolgirl
learning
ward
dober@@
icy
maintain
bar-b-@@
darts
50
bicycles
ru@@
snow-covered
ia
balanced
lin@@
ie
alist
grassy
defender
masterpiece
rer
carou@@
flamboyant
save
bits
will
)
ari@@
rot
util@@
pottery
strange
ged
balconies
cel@@
smoking
affection
keeper
handling
policeman
shovel
patrolling
smaller
peacock
toes
gating
tan@@
winks
oblivious
ears
does
speak
ama
new
web@@
peeling
secured
exhibition
shoulders
hawk
gie
hamper
backpack
defensive
unicef
shop
pod
frowning
happening
steeplechase
waitress
mark
eu@@
reli@@
chili
peeks
carpen@@
bicycling
apes
placed
pulling
hopscotch
v@@
symphony
extremely
competitively
takeout
present
later
spon@@
mud
ages
doctor
ny@@
violet
pork
pot
inflated
restaurants
strung
handkerchie@@
ear@@
tee-shirt
bby
flock
ati@@
chemical
wr@@
edi@@
slo@@
can
ials
watching
electric
cue
shopping
would
and-@@
ble
ced
ladd@@
intersection
flinging
thri@@
vation
ber
gorgeous
tice
chopping
tail
jars
mushroom
key@@
ist
cer
ser@@
g-@@
rubber
yet
over-sized
throwing
ate
styling
choir
fc
rubbing
stretched
square
guards
quarter@@
flash@@
soft
pitchers
presented
gy@@
lting
herself
box
wakeboarding
reindeer
corsage
portraits
extreme
wil@@
moose
drifts
be@@
swamp
swallowing
storage
g
bodysuit
fall
teammates
warming
ur@@
snowbank
bicycle
gam@@
63
hairstyle
design
themed
nati@@
years
street
watermelon
throughout
projector
mal@@
district
surge@@
rag
rally
itten
broad@@
amplifier
proce@@
loaded
eling
taped
kerchie@@
char@@
pies
dunking
shrubbery
claw
husky
plant
stretches
del
of
ult
dig
spi@@
avoid
cre@@
boxes
haired
eagerly
advertisement
is@@
coconut
head
bicycler
awaits
teas@@
build
foreign
enjoys
radio
t-shirt
presumably
arab
backseat
outfielder
filmed
leaps
gets
cherry
cutouts
pieces
they
folding
fire
dreadlocks
miners
soaked
rabbits
hopper
watches
lava
sesame
rs
pickup
plastic
raining
vo
filling
lots
reluctant
curbside
voice
chicken
share
grown@@
starting
roping
uniform
dappled
yel@@
ath@@
clips
paintbrush
amidst
komo@@
direct
4
pencil
bottles
lish
vivid
cano@@
workmen
saucer
golden
jumping
vio@@
spike
victori@@
mongolian
strikes
apers
seattle
leas@@
shuffles
gather
chocolate
poor
yarn
darth
?
bemused
vegetation
worked
alcoholic
opposing
snowshoes
ar
stal@@
gle
knee-@@
ader
adjacent
style
detergent
dollhouse
fancy
furniture
middle-aged
open-air
reception
assign@@
apho@@
crocs
diverse
normal
print
crossing
gentleman
video
tell
talk
wered
small
struggles
red-haired
lla
bridal
defending
ink
luc@@
l
tend
ruins
dan
motori@@
ite
footprints
lars
turf
reflection
ym@@
worried
ggling
nearly
cashier
un@@
surround
poodle
meas@@
cleaned
short-sleeve
fun
procession
ban
soup
reflections
dinner
grinds
ng
peppers
kit
stops
ic@@
heavyset
acrobat
speedo
neu@@
turquoise
band@@
berlin
brochures
base
fencing
whole
writer
es@@
groom@@
blue@@
sandpit
polo
tori@@
throws
verse
wind
ahead
tram
inflating
struggle
shower
valley
styrofoam
roadside
wires
spongebob
bout
murals
rehearsing
pair
flute
aquatic
dor@@
assisting
wheeled
sne@@
hood
bathro@@
snowflakes
container
baking
images
cave
featured
situation
mirrored
archaeolo@@
shoot@@
await
wrestle
lego
lif@@
bare-chested
source
throat
adju@@
double
thumb@@
snowmobile
ado@@
ned
houston
qu@@
coeds
sur@@
thai
shake
sari
chews
braces
sorts
terminal
took
states
themselves
windows
cruise
aft
sidelines
pressing
sell
mcdonalds
pass
ence
ently
pper
st.
may
pride
towering
slalom
denim
one-man
ravine
high@@
training
elaborate
sparring
volle@@
common
locker
speech
sum@@
boun@@
call
capped
figurines
bouncer
snowstorm
sweatpants
laces
headed
checks
ed
adole@@
skill
containing
attraction
chemistry
brick-@@
sign
fixes
types
bugs
kites
internet
pastry
sink
wondering
long-distance
tug
away
snacks
cker
eyed
chu@@
ag@@
quickly
plates
fairy
rad@@
alone
seeing
want
driver
thy
tiles
carpet
coated
weight
inclu@@
shield
tt@@
eled
(
really
indi@@
upwards
restaurant
swer@@
relaxes
shoot
amazing
fingernail
just
team
lit
stick
huts
clutching
celebrates
silk
jousting
lie
m
couches
taxis
sid@@
es
frames
spout
notebooks
op
modeling
four-@@
polka-dot
gardening
individual
suited
housing
tin@@
carve
pers@@
witne@@
brace
clothes
beside
airways
crabs
mount
painting
arrive
creature
bottle
flambo@@
fal@@
bust
haw@@
mosque
moti@@
los
short
teacher
gras@@
trough
raking
hammers
lens
camera
knee-high
fliers
duc@@
entertained
laugh
attemp@@
helps
joy
asking
gestures
lay@@
ful@@
day@@
ang@@
cin@@
quietly
cool
motor
brie@@
air
median
ney
garage
fists
sweets
technology
elderly
eastern
tasting
stacked
ironing
fying
bas@@
elementary
run-down
pers
ceremonial
placing
walmart
dy
bath
sky@@
confused
dachshund
performs
score
ack@@
ol
samurai
sh-@@
crown
creepy
private
aggre@@
.com
fum@@
hugs
woodworking
mot@@
fluid
long
bug
gazing
resour@@
story
parka
treeless
full
crowded
bal
natural
rollerskating
magician
rollers
martini
horseback
michigan
closeup
lone
correc@@
keyboards
attacked
thick
vacant
hotel
wielding
like
carriage
unfinished
split
demonstr@@
wearing
plaid
zone
holes
po@@
vege@@
defen@@
clay
pool
tending
reflects
dorm
strings
pose
tattered
wi@@
embrace
attack
squatting
manure
braided
plants
elev@@
ma
did
utensi@@
terrain
lors
shows
remo@@
some@@
alike
pants
t-like
depicted
mantle
toll
cartoon
bites
vely
la@@
offered
deck
together
ron
by
dder
inflatable
wrapp@@
first
sle@@
crab
stricken
lab@@
humping
wel@@
shoeshine
ug@@
swimmer
e@@
yard
audience
thorugh
through
stri@@
other
opening
lar
several
en
exposed
me@@
these
well-dressed
miami
must@@
tru@@
skiers
swans
bamboo
carousel
slow
cry
lakeside
assistance
orn@@
jog
bows
afternoon
foot
know
pout
shar@@
paddy
boa
195@@
fields
kly
capture
leisurely
glides
physi@@
shaped
ta@@
shu@@
confe@@
maneuver
spotlights
cafe
sculptor
dro@@
practice
likes
but@@
punches
travelling
ro@@
tators
seagull
descend
ans
sail
adverti@@
goats
milk
van
straight
england
religi@@
bikinis
bundles
formal
turned
pon@@
nurse
selec@@
lying
ca
rac@@
patrol
ladder
thursday
growing
tackle
cricket
life@@
rooms
patties
defenders
prints
al@@
paci@@
crow
costumes
jum@@
bystanders
rollerblades
schools
clothesline
cep@@
exits
jenga
tote
middle-eastern
orn
split@@
dirty
shadowed
seemingly
tank
statues
hockey
drops
py@@
butt
stroller
fisherman
&apos;
castro
viewed
filled
guitar
lips
little
onable
il@@
adds
reflective
masses
sely
butt@@
canoeing
splashing
ant@@
sodas
closed
hurt
sweet
screens
doned
desk
boats
canopy
wheelbarrow
reci@@
cords
programs
businessman
stairwell
pomeranian
march
fold-up
fine
conte@@
horse
involved
surrounding
je@@
hut
changing
gliding
receives
jostle
foggy
ce@@
3@@
airport
progress
hall
cycling
tux
silhouette
plate
vegetables
l@@
ured
del@@
helicopter
eat@@
hurdle
passionately
huge
wonder
stores
built
zes
effort
move
just@@
hunt
mexican
ns
sit
quilt
annual
express
tying
enth@@
players
nuts
toast
abandoned
detail
desert
cloth
lation
hallway
lls
checkout
tantly
ading
kit@@
separate
shore
contro@@
peering
superior
parks
thing
kite
drivers
tips
displayed
ces
feather
handbags
mugs
haircut
spaghe@@
dirt-@@
-shaped
chas@@
tte
raf@@
asia
louvre
pigeons
ingredients
projected
diet
leading
tread@@
cheerleaders
keeping
assistant
refuge
thers
dai@@
mates
punching
retrie@@
doing
darkened
jewish
cloud
caucasian
rakes
needs
tablecloth
emerging
canoes
platform
captures
self
operates
harbor
eiffel
pol@@
fatigued
sunhats
varying
eg@@
pokes
photographed
engaged
shaking
wrapped
peers
sin@@
steal
onlooker
scape
immigration
upward
practices
russian
pack
rush
locomotive
figure
hatted
gl@@
san@@
labeled
target
guitars
diplo@@
uses
e-@@
sme@@
laid
nose
vacuums
paying
tory
southeast
jump@@
wife
ital
indoors
ized
midst
section
tati@@
mountainside
ians
foam
oven
take
win
8
pressure
ous
puzzled
hungry
hi@@
greyhound
coached
ms
ya@@
sea@@
ank
now
center
grid
interacting
bananas
music
peoples
cloudy
minnesota
swoo@@
ve@@
launches
fs
quet
removes
grabs
guitarist
trol@@
demo@@
fac@@
focused
cil
pan
hairdo
grav@@
buddhist
finishes
spear
slic@@
block
breeze
sailing
summer
lama
bridesmaid
ascends
catching
headphones
daily
1
ac@@
delicious
stacks
land
displaying
supervi@@
windowsill
sideways
doorstep
directing
exhibit
coca-cola
cottage
moo@@
spiking
toward
nin@@
hedge
shawl
p@@
trendy
descends
organi@@
pipes
pipe
rifle
with@@
bagpipers
oid
sexy
chipper
blower
somb@@
johns
cases
jewel@@
carol
bunches
battling
seesaw
tulips
business@@
obl@@
scope
solitary
lays
puts
chasing
vo@@
view@@
pum@@
dogs
lettering
past
drives
pal@@
unicycle
studio
numbers
upright
furn@@
elegant
martial
gun@@
spe@@
bungee
purses
piercings
jockey
stretch
brushes
zip
provide
sion
kes
glam@@
yelling
snorkeling
flow
motorcycles
appears
observers
buttons
church
computers
turns
professor
tai@@
ion
murky
graphic
plume
clog
18@@
speeds
playfully
knits
sti@@
dul@@
gen@@
pt
cking
ggles
instruc@@
operation
diners
potted
ly
ump@@
reason
handler
ques
occurred
mou@@
nur@@
aded
complex
paddlers
gazes
pineapple
fel@@
chiseling
cart
pitching
cru@@
being
bright
turbulent
cries
group
checkers
rowboat
pushing
plugging
mic@@
asleep
equip@@
houses
travels
swimsuits
do
one-@@
drain
rough
messages
roller
ki@@
riders
else
ssion
ja@@
sh@@
manner
traveling
rid
slides
angle
mannequins
eyes
exit
oned
arm
notebook
cauc@@
syn@@
visiting
chalkboard
shier
cally
slips
carry
vers
diner
fenced-in
eagle
campus
questi@@
basketballs
lunch
dress@@
mirrors
snowboarder
button-up
mixer
hooping
mop
admi@@
ss
clock
kart
rappelling
black@@
dragging
dot
sand
smoke
approaches
mallet
sk
rail@@
flash
high-five
knotted
cir@@
blonds
jumpsuits
pointing
rails
pigs
decorative
hatchet
canal
gray
whi@@
distracted
bud@@
cari@@
entrepre@@
calmly
kneels
primitive
chee@@
landed
bouncy
r@@
yant
beginning
skaters
shing@@
wrists
ner@@
sweating
environment
overlook
piled
girl
western
bibs
demonstrating
go
ations
itch
says
grown
pamph@@
pedestrians
len@@
si@@
batman
frowns
questions
igh
waves
aling
daylight
santa
repairman
dribble
purple
shi@@
contained
woven
lift
surfs
map
penguin
mesmerized
pulls
h@@
cheered
brown-haired
crotch
excav@@
arrow
sews
tourists
close@@
blocked
ey
inter@@
smiles
swimwear
refriger@@
turn
appreciate
cello
banjo
mart
lavender
accepting
tumbling
taste
below
wn@@
blo@@
spiked
brush
mechan@@
photo
piggyback
crystal
muzzles
hoping
unpaved
scopes
crumbling
wheeling
ries
bmw
onto
upraised
inner@@
leashes
frosting
med@@
boots
golfer
plane
crocodile
travel@@
wise
festival
torn
wildfire
constructed
mauve
book@@
ll
dd@@
c
yellow
gymnastics
label@@
euro@@
trekking
merchandise
shovels
beauty
car@@
write
lean
triangle
chinatown
having
pole
warm
prepares
medium
dragster
girls
climbing
apparatus
els
beyond
crate
os
temporary
ked
beads
drawn
brindle-@@
ggers
dirt
j@@
image
o-@@
cabinet
crashing
masonry
pay
waterside
stap@@
purse
red-hair
hunched
fest
workshop
ice@@
mber
breakfast
put
classical
photographing
,000
bo@@
floor
walkman
ruler
cast
sacks
letters
thong
structure
cigar
stirs
holidays
antique
fountains
wo@@
sands
sm@@
shiny
wiping
buggy
punk
slices
examine
juggles
forward
repairing
excitedly
mixing
pho@@
ny
vigorously
typical
ukulele
dominoes
conditions
buffet
toddler
grasping
rav@@
compartment
comforter
tournament
hard-@@
sprinkler
sy@@
vending
arranged
sear@@
care
warmers
bad
skateboard
beer
shades
train
cotton
grand@@
spectators
weapons
ater
machines
printed
leaves
entertains
connected
bottom
leotards
french
hear@@
an@@
stony
raising
trays
exercises
poin@@
happy
writes
won@@
brun@@
incline
cam@@
relaxed
pine
spectate
batting
rolled
hooded
twos
sunny
view
per
near
happy-@@
tray
wits
escape
au@@
pav@@
room
hole
amber
pur@@
night
different
railroad
talking
dryer
it
wal@@
pouncing
watch@@
p-@@
read@@
medals
experiment
hy@@
clap
tambourines
luggage
kicker
co@@
skulls
spattered
box@@
special
talks
the@@
backp@@
vision
oakland
flu@@
rods
cargo
harmon@@
trails
prun@@
suc@@
tie-@@
presen@@
multicolored
jeep
blond-haired
att@@
expensive
anorak
fetching
chew
gathered
includes
stocking
jean
objects
touch@@
york
